
/**
  ******************************************************************************
  * @file    language_classification_data.c
  * @author  AST Embedded Analytics Research Platform
  * @date    Tue Jun  7 09:34:00 2022
  * @brief   AI Tool Automatic Code Generator for Embedded NN computing
  ******************************************************************************
  * @attention
  *
  * Copyright (c) 2021 STMicroelectronics.
  * All rights reserved.
  *
  * This software is licensed under terms that can be found in the LICENSE file
  * in the root directory of this software component.
  * If no LICENSE file comes with this software, it is provided AS-IS.
  ******************************************************************************
  */
#include "language_classification_data.h"
#include "ai_platform_interface.h"

AI_API_DECLARE_BEGIN

AI_ALIGNED(32)
const ai_u64 s_language_classification_language_classification_weights_array_u64[ 83003 ] = {
  0x8d5cd1d641598132U, 0x81bc96d1271bfe6dU, 0x75a6144124cf9cddU, 0x1f18a9d61a8b7f89U,
  0x707f2b95a35f2981U, 0x7f0825e20a07b666U, 0xd23e4f0cdb901540U, 0x7ff8db1c81dbf5acU,
  0x10b57570a37a1c21U, 0x8da24ff7e0e65081U, 0x8b3cb38d7fb2b95dU, 0xdbe1487e14dcb5e6U,
  0x37b2b89f5d668123U, 0xdf3139a4701d812eU, 0x29e6e328287fd853U, 0x7f2ef1c77f88e203U,
  0x4fb900fcb62c2e2cU, 0x811d0b227b3ba0b9U, 0x6c48fffff803U, 0x146600000418U,
  0xffffd005ffffccc4U, 0xffffa86c00003eceU, 0x689900002d62U, 0xcdfffffe942U,
  0x1ac0ffffc2d0U, 0xffffeed8ffffd050U, 0x7c421c355e312c28U, 0x5ca360fad4ba9bbU,
  0x133905e91a5135f6U, 0xe09fa1cd4201ccaU, 0x4961b2e41e060b52U, 0xa334193e50061340U,
  0x23ca7fc0594cf2d8U, 0x2020c03a29db9daeU, 0xc0dbefa02e4ecd17U, 0x4ef141c3e54e5c01U,
  0x1b68c829abe152e3U, 0xfdc7b1421c3cfbb2U, 0xeaec251ee31fca10U, 0xebe3ccbb2bf453a3U,
  0xf241c0cd234ff01dU, 0xe6b8ffeaf0e349adU, 0x5538decb1bb6b919U, 0x17461cf3c2dfeb13U,
  0xad58d93de2c441b2U, 0xaa9d43f592afdb5U, 0xfab0d925e8095b0cU, 0xcfa1c04de4d5e7e4U,
  0x1632d342fd4beb39U, 0xb9b718b73e591923U, 0xec10847971b3a09U, 0xfa02d7f517e860b2U,
  0x2d4be4450058b629U, 0x493bd203242b0517U, 0x1eaf58b5c35ab6e0U, 0xd82e585e15d73c31U,
  0x45f3ee192a1c2204U, 0xf0bbf025e7de1f4dU, 0x3ac8b90b1bca293aU, 0xd3baec0ec34acd13U,
  0x30c2af1e162c20c4U, 0x32531bece8da2018U, 0x36c94df8bce1ae23U, 0x27013bd11021a437U,
  0xc9410e0704ce2b1fU, 0x7f661f3c17e513b7U, 0xb5c832f3f9f82125U, 0xd93ee9e249e5c743U,
  0x5ceffe0fe426b54bU, 0x12d9cedc2c27ddd8U, 0xa439ef0124b7e9d0U, 0x654ec6bb351afb31U,
  0x2f1ef82c1de107f5U, 0x3c49b5b9f0cdf030U, 0xce5612eb610f29dcU, 0x3960c41a97f2f0ccU,
  0xd5f3bedc3e0fc20dU, 0xb9c8c2b73b385bbfU, 0xe0d8c1fac8ce3006U, 0xd4b54027ceb63bc6U,
  0x29432b08c0f9e524U, 0xf02403c028ab1b25U, 0xec65102fb4e0ed0U, 0x27ecebf726fabff9U,
  0xe663220051ec713U, 0xc5fdec07cfe0d9f3U, 0xf25e479b14557bU, 0x6d35debae6dadac5U,
  0x40a401f99b532c0cU, 0xb394a505190936cfU, 0x408bfb66f9f7740cU, 0xeaad9d62cc91628cU,
  0xb89c9cab3597b7e5U, 0x71aa9f5218f0f9f7U, 0xf01e1ac5d862138bU, 0xd9cb4135556858d8U,
  0xa31533a12e5f1d4U, 0x3a16feb3559858b7U, 0x502dade92b8fd57fU, 0xeb1a319ba25c3cb7U,
  0x47abee28130aacbbU, 0x6341e78eeaa4a5deU, 0x33175df87e9cd5a3U, 0x8928d83224967052U,
  0x6a53bead9a5ac874U, 0x89b6223ef945a4U, 0xd97bf3c2b0fababeU, 0xbead1b35c954e0b9U,
  0xbb8ce2b66c516e1aU, 0x863f3e90cd5d6a59U, 0xe012684bc1a4203U, 0xa8c44898ddcff3a4U,
  0xbe4e14716ab6c872U, 0x394765d2a205bc4aU, 0xacb7485b4c5b6f3fU, 0x356d7b86c8b0a367U,
  0x2417342a4e1445d0U, 0x29ced321e6bfb3f1U, 0xec2bd6e026dca9e5U, 0x1a290961efad81feU,
  0x4f5250166b503b2eU, 0x3701301db01bac09U, 0xcc25d40d9cb13af2U, 0xdfb7b4a4481f0accU,
  0xd7304c07bfeac8b9U, 0x3ce18ade7132413U, 0x9323dbde13b8ba26U, 0x5703d4e152b63caaU,
  0x11e9fbffec1545bfU, 0xb55413bfb84c51d8U, 0xb1f6adc6d94650f8U, 0xc12e423325f647c4U,
  0x1a140b552fcdfe66U, 0x441d242b3121bce0U, 0xd4a19ddd2e5c0f53U, 0xbc3e41ba22630626U,
  0x5efad932e2d32c2aU, 0x9d47ff0e0833c0a1U, 0xc59aee1e3b3802c0U, 0x8f1714bed66042baU,
  0xdbad01ad363ba7dcU, 0x52c95621afcb35d5U, 0x4d4e4abc01522fb4U, 0xc433045147d5c528U,
  0x9ebdf334ea1d1020U, 0xe42e2a334800c8e3U, 0x34acbdebfd1fee5cU, 0xe4eb13f405f4019eU,
  0xf117b93ddb19bc9bU, 0xe226d5324bdd3066U, 0x3fdfd70194c0be34U, 0xaad3c416fb0ca93fU,
  0x3dc6cedbd9e6fe48U, 0xc3b7405330f6d81fU, 0x3219ba40c9e5411cU, 0x27df33e7da597f43U,
  0xbc7d5c8f306ddb1U, 0x213f911f65b33f32U, 0xf72441fa391f2217U, 0xd704c0fa380cf1f3U,
  0x405c12cb40cd35f5U, 0x1ffd2441eaea1328U, 0xcb3d3113a9ffd9d3U, 0x3408fa2e610bf026U,
  0xdaaf72cc318142dU, 0xb4f6b606f338aca2U, 0xd50ef80fba35ffe8U, 0x2e0303e4ff21f629U,
  0x61b3e0d848b30fedU, 0xbb101548a40210e8U, 0x2f1dcbd313e6130cU, 0x1e0e0e2852cbea0fU,
  0xe2bf40f527c623f1U, 0x1c1caf1cad11e1faU, 0xde5ff5a8d9ffebeeU, 0xedd00b929003ee4U,
  0xf0bdf77fe15b3a33U, 0xc764983babe0dc2aU, 0xa13c47baedbb3996U, 0x336626bef29352f1U,
  0xefe79e14e4ced23aU, 0xb3dc4ebf26ee66acU, 0xd7e748ddc09e4185U, 0x89bee10eef07160U,
  0xa403b3e5380ae8bfU, 0x3eb5ab4c212096f4U, 0xb3656260003f5403U, 0xc2c9f721f1b32168U,
  0x3d51a32b9b69f537U, 0x4c6dc5a51103add4U, 0xf3e634e42460122fU, 0xec3054d7bbe5ad39U,
  0x5f97ca194a9b81f9U, 0xa3941ae0f67c27d4U, 0xf1c80c6c0f185e3fU, 0xd0133a1c1938abb8U,
  0x352ffde19ac65918U, 0x29cf407522f1634dU, 0xd28eab60a3d0d7beU, 0xf4bbee4103dbf106U,
  0x6237d0eb11d0efe0U, 0xce9c2bc3cf4ee5eU, 0xd5c4e74260ab9c96U, 0xc125b1aed6bfe9edU,
  0x37f6082447b9eadbU, 0x4537bdaad73858aaU, 0x45d9fddbfcac1671U, 0x575b21fe97a62b79U,
  0x4b5f66f978c020d4U, 0x26c632a83e1cddccU, 0x9d36f76e418f55dU, 0x2eb0c6301531e161U,
  0xcb0db9e0fdadaf73U, 0xa21b98cad9a02e7aU, 0x969a36d2bcd3f4b0U, 0xaac768c3b755dee3U,
  0xb47fc3b0a4fcb6ffU, 0xdad401e1d71ae0ffU, 0xea524e1a14c521c9U, 0xb449918a93d2b4dfU,
  0xc612d6fda0b5fee2U, 0x47b2e6b84458b246U, 0x8a4428fb92d60bbeU, 0xb73dc791ddf2af74U,
  0xcebb26b3d050c827U, 0x1c2a1213d3afc03U, 0xa6d0d8f75f3fe914U, 0xc2c7b344060b4bbeU,
  0x2e1d4276be06e774U, 0xb6ea6f5dbd90a07dU, 0x938e1cc1e805e3b0U, 0x5e043db8ae1670a9U,
  0x963b0fa52da377dcU, 0xb7aa2fd8ec3fb21bU, 0xec060346504a277cU, 0x63a96fdd3de8e26bU,
  0xe3973efe4da9e325U, 0xccc24459a41bc335U, 0x3308cce2acac2718U, 0x5d35feca1ec2951bU,
  0x5125e1b41e6bde2fU, 0xbffecc8baa4565b3U, 0x340e6652563c3620U, 0x268ebbc85740315bU,
  0xe0bbcfb7a463e626U, 0xfa4da2559c86b9e3U, 0x8ffff7e8e8df6a20U, 0xd51b4ef6b20a7171U,
  0x5fb703f32eeda2a7U, 0xb94f2cdfbd6007d6U, 0xbd6d1d21d4a25df2U, 0xd1087f8a7421c962U,
  0x995b4c0a5f426a2aU, 0x98bda575ce52bc4U, 0xe950f41d26a439e7U, 0xbaceda34c13b360U,
  0x13b56047c42b69bdU, 0x68e4feeebe50e4c5U, 0xc4aea16c6c4c2deU, 0x18e46ddb94f17050U,
  0x12ef464cc14aa369U, 0x1149edcf33b02aceU, 0x1aaa37a9f6f7da1eU, 0xe1ee90655bdfc7d2U,
  0x21dd325cc5bf321cU, 0x9df41bccdce41b0bU, 0x265cd44609160a05U, 0xc1c5435132af06c8U,
  0x102a53131f2889afU, 0xe8f706d8f1c40223U, 0xa4d54ad44b48f847U, 0x345f3517263e20daU,
  0xb8ebc2e53d341038U, 0xe94a31f80ce1401dU, 0xb0df1253db2d1817U, 0x27fb4178a0f2b7a9U,
  0x53a3c45fb80eecbbU, 0xbadcb9e4b530e3ddU, 0xe212e101d0ec2d3fU, 0xc107deaed55dc11dU,
  0xe751e25da6deffedU, 0x505eddb5facbe20bU, 0x54a5c7ecacd40efaU, 0x60b2a5a1aeb3da08U,
  0x1dc36fe09bb87ffeU, 0x3504292105432dadU, 0xfb9d1806cd04b462U, 0x352af718ab05ee2eU,
  0x35c0c9522e481d47U, 0xd336163c06c3d9f6U, 0x3ec5d41efd030729U, 0xb7fd09f1fef3f67cU,
  0xb3fe45a1c939e6ebU, 0x9ed1c0b9ce00ec25U, 0xe1df3961b4cd2591U, 0x60c2f4d1d4fedf0U,
  0xc4281af3f9d3f70aU, 0x48f8cc285edf0f07U, 0x13c366a924a2ba40U, 0xb821b90407340171U,
  0x2ebfebdeced0e61cU, 0xc413251ea9dce2ebU, 0x58f2d9b6eac42a23U, 0xe552f0dfca4bd124U,
  0xa13b230a4f0fc115U, 0x2d724517d8feb711U, 0x6e00aedced44ee2U, 0x122956b423c3fbcbU,
  0x416ebf2f0affca7fU, 0x25f3e7e0cd1e0bfcU, 0xbd0cf8d3f8f12c8fU, 0x290727252cae429eU,
  0x7e854a4f9d714f7U, 0xead2d416fb266ad9U, 0x6826b952b10ccb4cU, 0x81e403ecfdd466fdU,
  0x3443bc0fd934ecd2U, 0x15ef48065f375de6U, 0x18dbbde737e8d1e0U, 0x94c43d5110094fffU,
  0xde40e4131335dcc6U, 0xebd7e433cde3cb0eU, 0x3c2b1eb7e754f735U, 0xe7f2db3c5ac92dd1U,
  0x34fad46d312e0efbU, 0x1def2944e0f8eba0U, 0xcb3fcc4e562ab8c7U, 0x1758e1142161e70cU,
  0xdcc7fa604e9db1b5U, 0xc8e5c790f08b0316U, 0x5b3ce1fa1319caf3U, 0xf4990be7c5354badU,
  0x6813e63e586db7b2U, 0x42aa31cada0485fU, 0xb4309426a1c029bbU, 0x233e2bc6c2321244U,
  0xc50f321c20c599c7U, 0x9067d992e16b39b2U, 0xafc59249a8034fc6U, 0x40512729e3b0a55U,
  0xaf9232af99543b1eU, 0x520cf25f9afac436U, 0x40a6193b2dc744eeU, 0xd8ef9b4790c1267eU,
  0x77dd68353ee611bdU, 0x928fb721224f44ddU, 0x49d1f81fe7ea546cU, 0x376304a7a003a8cfU,
  0xc52c2112ce2ad0bbU, 0xfdb9ed4ea1d60106U, 0x1e04ddd159c9adaU, 0x9feba2c95fd01131U,
  0x51e010af6bf9316eU, 0xafad9fd681ca51c2U, 0x2fd1b7e927ade263U, 0xd1c04e8d2c3f1757U,
  0x26201122c808c533U, 0x254e0ad00b95624U, 0x1a7b98535165039eU, 0xb11b57e9c0cee4faU,
  0x4a191f1742ccd1afU, 0x24c1e4001f883f40U, 0x225714c7542460b6U, 0xcaebc3a1e37b12cU,
  0xbef3f41d4811d719U, 0xdf24c3e71fc74552U, 0xb8569eb03f3be5e6U, 0xc3cfb246b9fcd6e6U,
  0xa3aaf66f5224e560U, 0x38e23c6d2d1f2616U, 0x27df3edf4cfefb5cU, 0xf32026520a8d2fe4U,
  0x29cb4b4fd19005edU, 0x4cb0693106e2142dU, 0xfdfab44ec3eeb0e1U, 0xd129eae37ec37f4U,
  0x98ae0be8db61a9f2U, 0x54fc50febfb4562cU, 0x5ca8444c36dfc02bU, 0x539b306af2b0c8eU,
  0x56e433aa40daaeb6U, 0x7fd0f3cd48c3adbcU, 0xc8d85565b05fd5f9U, 0x15cad7b54bfcdd39U,
  0x7b0ad9aea045cffdU, 0xaa469ba1cb2caaf3U, 0xcabfcfe850544ea5U, 0xa24952d7235ab735U,
  0x4c0423f7eaaf9693U, 0xd5d1f73930beda31U, 0xb22860b93d32e294U, 0x4317b01364da5f5eU,
  0xdbad062d901955eeU, 0x25a8b35d5fb72508U, 0x94b26bed1c43f14aU, 0xeb4ce8505caa18e6U,
  0x631459cc8cb99b41U, 0x9bfbce6c35cb4c99U, 0xe57fd53e414036afU, 0x1bcc08cdfef9dd65U,
  0xf49b9f3f02dfab9eU, 0x5200c79b664ec773U, 0x8050e0a06c21661U, 0xefd7d8a23e51ca5fU,
  0xe0c69ac7282e63ccU, 0x488ddb883323c52eU, 0xf0534f05a8a1071dU, 0x18f9a11201a2c937U,
  0x9969cb43f07520a9U, 0xa7f308131a5be7e7U, 0x63a94142f80614ddU, 0x9a3fcf6fac81a46U,
  0x294f12a1b8c73da1U, 0x26eacabce1d05df0U, 0x3b1debeaa1680a6eU, 0x6953afe47b3857e2U,
  0xac1148dec8e0a4fcU, 0xdfd3c32141e3b7e5U, 0x431853a411c1af2aU, 0xa0bdb22acd2fae5U,
  0xbdf44d0220d718daU, 0x2bce1fd2de45113eU, 0x116dc5fb9c41f45fU, 0xf34a06dd02d22dd8U,
  0x3e2521551307d307U, 0xa3f3b997d431d6adU, 0xb140f8bcd63408fdU, 0xe8a2fd44023bd4dbU,
  0x6b7f09eb2211395bU, 0x17f16eac26094c15U, 0xad2a3e38bc1d3f28U, 0x11ca0d4058c1b519U,
  0xda3526bae29dc259U, 0x2e39c6ce9d613c14U, 0xb809d9554221c764U, 0xcbb8052c22e63bdaU,
  0xdde7ebe542d8cc31U, 0xadd3390e3052214fU, 0x62f73d9e9de5d661U, 0x492d46dd00d8ecb1U,
  0x9a3d3ecc0bb81a46U, 0x4fdbed561436ceeeU, 0xe5ce47edcb233a09U, 0xeb21e1f4f424410bU,
  0x4537da4626c1b040U, 0xca4cd4503e3e352cU, 0xd495ade9bb2fc2dU, 0xac0be5dcba1e20e6U,
  0xb4e349e5eeacc8c5U, 0xbd5599352e7ee32eU, 0xa5dd31d7eeba0625U, 0x4170cc0928bd6ac2U,
  0x484c21d5b4d90fa0U, 0x919ee34a2cb1461aU, 0xef4429b335ef8e21U, 0x2e0ccaa5a60af7eaU,
  0xfd210d26025da749U, 0xae5cc9e9bc95159cU, 0xf927a2f91f921a4aU, 0xa9fd56e1040b0256U,
  0x22ad1540b3c17f5U, 0x701735a3912cbc0bU, 0x17b52c5b071631eaU, 0x15be28aafd0bd519U,
  0x2fdf54d122e53f4U, 0x7746c8d2fbd151aaU, 0x7cedfeca5135e4f2U, 0x31aa26a910dd5a9cU,
  0xe11d5c2bd8d1ae63U, 0x3fc10422a90dd507U, 0x6d1f105981c166a7U, 0x43a40fc9baa31cc5U,
  0xa061c2eea8d04f09U, 0xcbf75ceac5eb2349U, 0xb1bc3dc1f11da762U, 0x2849e92801b4b37aU,
  0xb5baca600aab7051U, 0x1187f7e50bd513ccU, 0x65d627ed0d0d133bU, 0x4b6662b22d9486d3U,
  0x311946d152ec9ce9U, 0xcfc79ff34d6744fU, 0xf13daa0928d292c6U, 0xa03255fbd3b792f7U,
  0x40d43c10460dbc0bU, 0x2d17e108f9ac8dacU, 0xfbb1693d4fb013e2U, 0x9f945e2c4afafc5U,
  0xbdd80f58ce1d929dU, 0xecca191b021f30bU, 0x13954a37fddc4afcU, 0xd0e7fcc8bcfc0f45U,
  0xa66ca2be7fb837e1U, 0x4bbc283e9ebe6403U, 0x180a1636d525daa9U, 0x37dbd10d9240c3aeU,
  0xa83cc9b207bcde41U, 0xcafb23ee1966124dU, 0x24ffc4faff923679U, 0x2cce96f61db27997U,
  0x6028083d8fabe9a8U, 0x965f073127150384U, 0xc5ff3239d5cb7664U, 0xaa5cde9c4fba95beU,
  0x4d982cf83bf4fbdcU, 0x1afb30ecb0e00a23U, 0xafedce05c3b5eadeU, 0x5d6ac3aed53de47U,
  0x26f9d9510d0c3aceU, 0xee341903ef1c4ceeU, 0xd4dfdec5f0f9effaU, 0xed451a1e6349da11U,
  0xd9b809c5daca0d57U, 0x4d5747fc51030825U, 0xb7b7f23ddfcfe957U, 0x26fc21eb4012b2b6U,
  0x4e52efc436cb3b05U, 0xf6e6c059ccce2334U, 0xc72adf561f2fe13dU, 0xaf5ccbf4d150e9ffU,
  0xc8bc3c39fed5c7b5U, 0x10c2acf1f7f0c75bU, 0x6c23af1d0b2c2b1dU, 0xded61608d839d642U,
  0xb53c4fd2ad1e450U, 0xfcac0eff12d1e746U, 0x1a98fe27592ec8d9U, 0x5f11aa0e382741e5U,
  0xbb1ea9b9d4040863U, 0x161dc14a0af2db2cU, 0xce32ecad0706f11cU, 0xe20c07df1a4b7f48U,
  0x2626b2180a37fabcU, 0x1adafff8003305dcU, 0x4602de11f53ed847U, 0x22ead526bda02524U,
  0xdc5e54bb4f6c54aaU, 0x62ace409cbcddb6cU, 0x575be192500f2ceaU, 0x3ba55814b5e25bf5U,
  0xc84a5dbac8481aadU, 0x6e05f34593f3d71U, 0x99d89ab8d0fe8f4aU, 0x7f5b1f1d1e4c2a1eU,
  0x55331129fb31ecc2U, 0x2618ffe9ec65d58bU, 0x2e441a9fbaab364cU, 0x1ae63b8f6b6173f9U,
  0xe2cbc22d1c36f202U, 0x2c110f1d5ded920aU, 0xad2553a9b1e0e9d1U, 0xacd2116afe404516U,
  0xf02ce681cb7c964U, 0xab1b25fbbbb702faU, 0x9f0593601d52e533U, 0x17bc9507dbd112dcU,
  0x27e263f5c733bb5dU, 0xe177dc4dd3a1c64bU, 0x24143b61244d51fcU, 0xad6e55a157bd9065U,
  0x3f484ace35bea230U, 0xb3129d5921dd172aU, 0xe9ad2bca14ceb539U, 0x542b8e04c220411eU,
  0xea109d70be53f0c5U, 0x319c3a9926512fceU, 0x2bfccd7ef42b9efU, 0x580b93b04be7cc27U,
  0xc326341d84db5f0U, 0x30d2072ea9dea84dU, 0x62e0651f523bf9c7U, 0x47e34a4e3c3f0c35U,
  0xca5700281bae00f4U, 0xa156995eadf52edfU, 0xf8a6d241feed3edaU, 0x17b1fb2ef3312c42U,
  0x1b025c594540461cU, 0x9fbbc51cfb2230d2U, 0x5b2a8f9dfc1b7efU, 0x81857b2f6680b19U,
  0xd215b53ce82dfae5U, 0x4ce50fbe361c2d2cU, 0x1bce4acae9a9cbb6U, 0x9af8eae04a155eaaU,
  0xf440ba6de482a71U, 0x44446c8b163a1feU, 0x5843e7bbcd26aae2U, 0x183b1d04433348U,
  0xf3209ba2433cd261U, 0xa31e1939d34949bfU, 0xf181dd73951ed7fU, 0xcd301ba051df25e0U,
  0x12aea4bf56d42523U, 0xf5ca200ac9043a4eU, 0x9b4cce08192daad6U, 0xb526a71af4da14dbU,
  0xf3315d17360ab160U, 0x25e1adf30c584fd6U, 0xfb4cfaab1baf1661U, 0xbdd24c43161d1aa0U,
  0x11fc07094700e1c5U, 0xff2c4e265125796U, 0xd7d1f3e1e6e208edU, 0xddae8ec5fd34431cU,
  0xe12fbf5d2a0cf287U, 0xbf4dd566f1ce9110U, 0x213bdf2ded0c529eU, 0x3fc24e3b0529364eU,
  0x2d51c50e7eece4bU, 0x1ef4d9b548dd63ebU, 0x13eadfffd0b59981U, 0x46da3f4eb00e441bU,
  0xffd01dc059ab4c95U, 0x9d284d56c142a0a5U, 0x531047ed9919d7aaU, 0x55d926c16292bd22U,
  0x9d9913501d372558U, 0xa3c6c6b137b035f7U, 0x16c4fa0043c954caU, 0x8dcbda30b50ff5f9U,
  0x214f0337712e1a4U, 0x84035fc29e2581aU, 0xab1801dbd3e8a64fU, 0xbc73d03c02b4003U,
  0xead7feaf34d0be53U, 0x212fbe5c2e2d2808U, 0x51e4324ba550daa8U, 0x6318e3dd3ad5cc5dU,
  0xb04faaf417705e16U, 0xca752f0ea97f013fU, 0x5cc925b1254074a8U, 0xe565d24f38cb46cdU,
  0x36efd83bb5cc97ffU, 0x1f19f4a2e5cb58bdU, 0xfcd12d48b5aa9259U, 0xcd8a3308276cbedcU,
  0xd00203faf406cef0U, 0x66315f6302dbd042U, 0xe596190a44508b2dU, 0xbb183fc1f9ddd5c7U,
  0x6a56a3d995521691U, 0x6f5314415d0c07a8U, 0xb0bb4ee40567b010U, 0x1c0370cf6eeac2f9U,
  0x381664b718f50959U, 0x3c07f1ce47babff2U, 0x4f8e5cf2d12c67b4U, 0x4013c81921f2f95cU,
  0xc2ce57bded2ffb57U, 0xcaf450e6351841d5U, 0x56d7d9cafbd9e49bU, 0x65a9de5fc1c5e565U,
  0x167552a2eab0bf3U, 0xb2b9d2fbe12eabc3U, 0xef1c59a59b2208dbU, 0xb53dde9267dc0e20U,
  0x5db62fbcf10332d0U, 0xb016f50d11362e02U, 0xf6dc0a0b39f2aefaU, 0x2bdeaaa9db3384e9U,
  0x40f6fcce6897d818U, 0x352db34de72cb938U, 0xc62a2b4f49b5d3b7U, 0xf60355d4b1ee6005U,
  0xe2c3b20bb80e70c1U, 0x20dbe50357491b0eU, 0xb7ba1821b0cbce3bU, 0x1022a89b5deb3d2eU,
  0x28de5df57d1cbf08U, 0x1bba249c3be3e006U, 0xa1253be4e9ccebfbU, 0xb3a54ba0113e392dU,
  0x5f97f2463142f52dU, 0xb3d3f760cbb8d7b8U, 0x2832c1010908f0b1U, 0x44cfc3205308da6fU,
  0xd240dc6b3e39245bU, 0x7f1f42342ca5ca27U, 0x1c2f32be0b60fa24U, 0x55acc1c3dac8944fU,
  0x57560e5ede24021U, 0x234b51133655360dU, 0x28e499483a1af0d3U, 0xe3be94e9cc00b0a7U,
  0x3e22acafdaabede0U, 0x9ca4547b3a4ac0bU, 0xac0a07e2f805bb2aU, 0xf527c435e72de1ecU,
  0xee5335fafed3ff57U, 0x332d2ae13331f1d3U, 0xde4d7e04a00c1134U, 0x280be6ae0f6734c4U,
  0xe95f12c4e2ed5a55U, 0x1ab8b0fac2bc23b6U, 0xac53a04826e87fbcU, 0x36b7daf447adf839U,
  0xf557d43e1f72daeeU, 0x9c05e0f5611d7642U, 0xb6c4415ea6345746U, 0xbf52eb1e2bed9f51U,
  0xf034d5244d20f129U, 0x5f42c62dfa193501U, 0xad0f4fa526e928fdU, 0x320cd00bcb358e1U,
  0xf43c7fa67254dU, 0x3adb0bbe2454ae36U, 0xd3fa4315a34c40caU, 0xdd37dcdb2b1abf44U,
  0xcf11e250fdd4b93aU, 0x212d32bc39161bd7U, 0xb7cf57e5aba113cbU, 0xc641b1bdf8dca19aU,
  0xdc9b24e4912209c8U, 0xc659a8db0d3096b1U, 0x670352700a212f0eU, 0xe61095fbd033b43cU,
  0x2ef1a6e2eee34452U, 0xc4d541fe529b2e1aU, 0xae4803a315010825U, 0xb62a01c0e72d3c74U,
  0x18af357adb6bd4baU, 0x75aea379ca70364aU, 0x2a2e29ec7ea0a9b4U, 0x7fd83800dcd1b20dU,
  0x3bb914ad3ab8f212U, 0xbb025a8cb6b26842U, 0x1bb4a8284347e9d7U, 0xef5753311fc63c3eU,
  0x24e62f79f64bddb1U, 0xd17c5c15fc0c9507U, 0xb8fc13cb51227a1fU, 0xddead64da85e6fbeU,
  0x74430e76031a2897U, 0xb7b65ac663011baU, 0x4525d2ee0ae61befU, 0xf1954f62c74e517cU,
  0xe84ca7513f325fe1U, 0x2244198fea652acU, 0x7953aaf2ae68e6c8U, 0x490468eff6dbed43U,
  0x6ff3d3fa84def74U, 0x8e2651f5b3cbecddU, 0xc629afc5cba26133U, 0xd20942ff4fd0bd14U,
  0xba3ef93403e49745U, 0x443119d13107b030U, 0x52009afec4150463U, 0xde6d9c070ed00657U,
  0xa8463d59649942a1U, 0x9cf8c793c6b03289U, 0x40c723eae45fd3fcU, 0xa55bba68c9066e04U,
  0x582de358134baf0bU, 0x6d31f1f8119f0a27U, 0x2722bd010055f761U, 0x6607ba523bf7ab33U,
  0xc0929d98f3ee3d05U, 0x2f9ad67b9ce65e0U, 0xcb1d445ab27fddd8U, 0x9eee5655c5335b12U,
  0x3bd99d2a125fff9aU, 0xf1d4cd09a53150bdU, 0xbb26048d0e68af99U, 0x833552e8afccf22dU,
  0x515a8c0d9668b160U, 0x4124bd12369e42abU, 0x285ef1ed449308bbU, 0x28d815a057b1363aU,
  0xd62ebd1524a862e0U, 0x27993bc9f22a34e0U, 0xb3eeb6f5a83bbb4bU, 0x16186223c5ac0172U,
  0x6ee79a0bb1abdecfU, 0xce3944683c6ac3b3U, 0x9d5b9247ca1ea3d6U, 0xf43a115cf5b454bbU,
  0x2ccafe4e394361feU, 0x54e2c91ee7aed44cU, 0xbee5d56ea0f3f35eU, 0x11e2eba8bacd26a9U,
  0x35e335f4cff90557U, 0x7f43e4ebdf1e1cbbU, 0x132e9a323f295e13U, 0x2bdc1f3959b1ca63U,
  0xbab3a6fb1a056d0cU, 0xfcee27efacca3861U, 0x5020d90ac700b925U, 0x7ad6c6a82c5aadacU,
  0x3ca61ccdcc7bdbcU, 0xc251d7cfe8470a68U, 0xef2e194b24610c13U, 0x3ff203a236970e4bU,
  0xd71f65565a4cf29fU, 0x281842a709dcbc13U, 0xd20ee3b00b1fc4c0U, 0x535f1ba74cd54ffbU,
  0x1b99042dbe0208cbU, 0xcbe836546af6a5daU, 0xce04b5f62a494124U, 0x38741c1621470cabU,
  0xb4e0fbff3e3df2bdU, 0x2799bf2dd876194cU, 0xc7a5a19daa2c483eU, 0xdfebcbfa68ece8dcU,
  0x1f235222e5ad96f0U, 0x3532df539a494852U, 0xe941f15ff9facc20U, 0xcf332e674429cfa5U,
  0x2ab922f5e2510be1U, 0x6410b8571b450d72U, 0xb4ceea753227f345U, 0xed34e74a60605c0cU,
  0xddbd8bf4faa6cd4aU, 0x4f4407c42ab2f154U, 0xb9faf24a08c828b9U, 0x505fe7cec7c1c01fU,
  0xd3d76050b82d6150U, 0x9b42ef9dc7c50006U, 0x24503304b1bd3518U, 0x382f72e6a7052ebaU,
  0x3d330c597f31f76eU, 0xfa2b0353abe43e9U, 0xf008e22fcbe8e1b1U, 0x380c3c60b0db3fc9U,
  0xe700e013ee446674U, 0xf6bbed6255e47305U, 0x1b48d190e31602fdU, 0xa8a611a70f154bb9U,
  0x553e5fea2cc6da62U, 0xbf2b14f4eac9b99eU, 0xeca0224ab0ac2a0dU, 0x582fc3ad17e0f914U,
  0x4baeea4ff94cb141U, 0x1355db0f3300f6d1U, 0x5fe6703817c041f9U, 0xf8e3d0fedc4548e8U,
  0xc3ba224f1a74b13U, 0x4b52d6b5688c00acU, 0xb62b296804c3d094U, 0x41fba898550d443fU,
  0xb18a4142cde4561aU, 0xe1c2f30270df1b51U, 0x5a4b362e28bf322eU, 0xfe5b3ae9021bce1cU,
  0xf8e599d1c9530f62U, 0xf9d7ae52610d18b4U, 0xb9c2c4c4fad9dfc9U, 0x994519eec3b6f635U,
  0x3825f6a5f62fea74U, 0x6af36589e1e04bacU, 0x4867416097e34eeaU, 0x3c41a8006d4ae92bU,
  0xff4bacd71a4cc127U, 0xe29fc9fe3bf0da4aU, 0xda221fcb9e889047U, 0x772156442e142c0aU,
  0x3932074f1acf82c6U, 0x586a4aec2bef926dU, 0xc9ba2ffa0111bd96U, 0x7e120ad6170740f6U,
  0x2d5ab2cad1a9d895U, 0x7f1b88f8ddbbef3cU, 0x202e93c0d76caccdU, 0x6a047ffc2dc240aU,
  0x654e3a18cecce78aU, 0xaefe61acc835201cU, 0x2b02c3dd6b3e9142U, 0xe3cc0aa424b6d781U,
  0xe0ae03c60ab31b46U, 0x25b9e01a2c0ee6cfU, 0xcf131695d93d09faU, 0x1b6698ed5ccf02fU,
  0xf91d0e0f75fde4afU, 0x4ec255e5df03b7c0U, 0x2b22f2464b4be220U, 0x49df902db4a94b58U,
  0xc7653613c1a70d2fU, 0x4202c53cbe47fd35U, 0x38b5e6fb65cce4e8U, 0x16595c18b1b1bfcbU,
  0xedc346de30c343f1U, 0x3415053e0fc45abaU, 0xe6ada764f05a5a5fU, 0xcd0dd269e30b669U,
  0xae34981a58339457U, 0x2da1d6a0ab1f420eU, 0xed35f455cea3b471U, 0xa4d2b04daf604bf2U,
  0xe1c720e5c11b4abaU, 0x33e39217e001a611U, 0xcd2ec09a5adcbe61U, 0x12180eaea5c60763U,
  0xc3b5cdc7eaff0325U, 0x4d42bf523a9b5594U, 0x4ebe25644e4eeeU, 0x22b8a73744cd61b9U,
  0xc4621a170cc14d59U, 0x9a39613954d132ebU, 0xbd351c05eb9fd072U, 0x2ecd4c17b4d70fbeU,
  0xf6160aac419b5bc6U, 0x4c5e03051829f145U, 0xd9072c9ab628a206U, 0x491e0cdadc34a053U,
  0xba0121992dc40031U, 0xb67fea676b28d469U, 0xe75f885d1b18fcbcU, 0x4c5cc55b3b2ad20dU,
  0xe42cf605aca94e96U, 0x24dc3db9a656ada9U, 0xc060e462db4934f8U, 0x55a3e774e211e4d6U,
  0x513121a81e0fdc5dU, 0x9b199a1ac2af6eabU, 0xe44db75e7123a537U, 0x27b8db94a4bb1b98U,
  0xacc4c14c6100982fU, 0x184c0a5feba00646U, 0xeeb936065da447ddU, 0x19c737393d1eafc7U,
  0x2dcd135de93d1bd9U, 0x952adc50a64c6205U, 0x304f4d3d11c016c3U, 0xe004d50c47bdd5e7U,
  0xdaf83df348a7a86dU, 0x574631c90b3364bcU, 0xa0699f5e74f05898U, 0x23474f49e0881d2eU,
  0x381fe7c61410fe41U, 0xd1405f44d76277ccU, 0x2701b299d264de74U, 0xcc2bea925bb89633U,
  0xaddf1d054b4cfd9eU, 0x104336e3ebb07514U, 0x3428b86843089352U, 0x67223f3e329c94f3U,
  0xe2d2e568685fef76U, 0x1bbfb593dc3e2beU, 0xd563ed447063a7c5U, 0x1253549aa5883864U,
  0x1d8b6d71c27838e3U, 0xbfbd12b21c043847U, 0xb8ee8cf7f7da1cd9U, 0x9522df70b8cd1f1fU,
  0x35cc03bfeef9ba6cU, 0x41be39560c206edfU, 0xf1b74c7f8b2c642fU, 0xe670683d7541f9acU,
  0x1ddb8f39d9ac213fU, 0xad9cfaaa5ed13742U, 0xc495ca9a4fab08f8U, 0xddef54d397afeac3U,
  0x75fc21f912011e0eU, 0x8f5ad93601fa276aU, 0x3ee15af0f9981927U, 0x54a84f11141233bcU,
  0xa932d60eab0facf8U, 0xdc24da305c6414abU, 0x1f2f2623df553b33U, 0x39e198f677c10114U,
  0xa2caa5b44f62a9dcU, 0x23695d133c543eb8U, 0x8c46a591d556228bU, 0x37b33591d966922eU,
  0xd1404da5139c79fU, 0xfc623af57f10d3beU, 0x1fef04b3e9cf5cc7U, 0xca2003e7f15c0cf6U,
  0xc45a1c20aabffcc0U, 0x3190356c02e6362aU, 0xe81e62bf49aec845U, 0xb8b10d752d58b5d3U,
  0x31d7a24808ba4627U, 0x5be8e5cc406fa848U, 0x2fe93cf907a1bf0bU, 0xfc7c060f36f92337U,
  0x4dc401d9dfeec1c1U, 0x6a15665289a8283cU, 0x605ec4a40fa7b6bdU, 0xbeab501157f60760U,
  0x530471731b10ffbdU, 0x3cf451dbefa72a2fU, 0x370be19995512aeeU, 0x3d15ca565dab13cfU,
  0xa78e4de6d7c3de09U, 0xea20530cd8910ca9U, 0xfffff074ffff981bU, 0x1bf300002f7fU,
  0x4344ffffe928U, 0xffffdd850000a7d2U, 0xffffcc8f00003f96U, 0x33500006634U,
  0xffffb627000020b9U, 0x851600004981U, 0xffff8dbbffffd258U, 0x1588ffffb0fdU,
  0x58effffd90fU, 0xffff8c9cffffecb7U, 0xffffeceaffffeb5fU, 0xffffd2b1ffff7c03U,
  0xffffc68b00003dd8U, 0xffffc89effff7229U, 0x133c908c70640530U, 0x4ed8e520daaa5d3U,
  0x27c1a834102be277U, 0x343e0f1d240ff9f9U, 0x386ee942f9c3d20bU, 0x3aba2ab29bdf6960U,
  0x27df28ce4bd80413U, 0x4e2e4dc5bf05a5f1U, 0xe96a3a130953475eU, 0x3fc2f6b4078d0398U,
  0x7fb1c237a0e19a96U, 0xf8654dc3fbbdcd4fU, 0x117035b9c2bc22bdU, 0x70f6f3ca39f4636U,
  0xb0bc98c478cb1b54U, 0x29d43ddcbe89e1dbU, 0xad5e6d3750b82fc1U, 0x30a4c320c5790a84U,
  0xe8f2b6fec73f5992U, 0x2a5f4e4e1acc0bfU, 0xdf4356490bb3d607U, 0x22691811f735b54dU,
  0xbc893de4c31c03f4U, 0x8ae6fc60909c0ccU, 0x10befbe10e735109U, 0xd557aee2c103a0afU,
  0xb0cb25bb298eda13U, 0xd81d844aeacd5dcbU, 0xa9d3d8670e7ccdf4U, 0x1bae041746afc0b7U,
  0x425cc6a1fb72c831U, 0x2f214a35a068a3e8U, 0xc7d3e36b32653270U, 0x9e0719edd659d0fbU,
  0x11192e473141431bU, 0xc3ec6830d4267245U, 0xbe858a5727f1d938U, 0x5f36cae2edd5e52U,
  0xabb807c16b518935U, 0x4e8ddfe76234ddb0U, 0x37daf4ace804f15fU, 0xda60a0409a5a4b9dU,
  0x31106c3bf49d2216U, 0x4a0a2141f4480d6cU, 0xb698ead3dcb31bfcU, 0x28f1b095113f1bd7U,
  0x3b94ed60568d6e06U, 0x30005d74ed35b32eU, 0x4efeaeb88a263610U, 0xe28fb85b873a3f99U,
  0xa4eb35bf377693d7U, 0xb30eb75551fd6199U, 0xa5610ceb53f3d2cbU, 0x5ade3002e5dda79cU,
  0xebac8651531c131eU, 0xc1832a5bc456a5cfU, 0x479b24553751d5f2U, 0xd8464da477e6ce2bU,
  0x6cd2c645f1fca62bU, 0x14b99ce4abb6fcffU, 0x6c00ffdf2cbfd020U, 0xad6bceaa5efc262U,
  0x59db2d24a4aeb37fU, 0xd1206e2be5b3da2U, 0xba5ff39ca90db762U, 0xfa4406c0d4c0d01bU,
  0x90fa0bdb0018220aU, 0x36d19d3a11323eb1U, 0xae961f3e215253a2U, 0x2abae7d009082ac6U,
  0xf73d193e98ff29bbU, 0x9da1ca1367db4443U, 0xe0dd0ba6cdeea9f5U, 0xb8c731d44b10ecc2U,
  0xd7211fcd4da1c468U, 0x72832c102bc0fecU, 0x1f4a353eab409b9eU, 0xddda48171730eb25U,
  0xe409facedfd7984eU, 0x4e44f7d52a115ab0U, 0xb5210454d60ab20bU, 0xcdcaf9bb3042a54dU,
  0x5b42ce1fcf4b9e42U, 0xa7eb3534e9fa963aU, 0xe355454a0da44cd3U, 0x2fbcfe012e6cf0c4U,
  0xd4f8dd18632a423cU, 0xbff8c2020251bba8U, 0x7a9d13eac049dd4U, 0xf2a427d3e90008c3U,
  0x22ce0aa8400b58e6U, 0x5a0c3cac38afd3bbU, 0xce9a38069f5ae013U, 0x1f5f400aa20512d4U,
  0xd42ce7aba61136c2U, 0xdb543a19c3cdb063U, 0xef30dad0e959d055U, 0x3c43f81043040230U,
  0x2562a202b8c26a69U, 0x4206f128f97247f2U, 0x9a4d385ce9f706ccU, 0x50afa4abe51507c1U,
  0xd5aaafc2a5df212cU, 0x131155336956e05bU, 0x54c2be4cd5eb8f99U, 0xf341cbdcf9602ffU,
  0xfec597e49d3d1553U, 0xa5c61faa44e044ddU, 0x3a0e25f26b4aef22U, 0xb3613c0c400800c6U,
  0xb0f819e7a36dc1e2U, 0x4c040d3540e13fdfU, 0x3bffbecc27bfaf96U, 0x5350ed19074df547U,
  0xfeab4824e109da2aU, 0x62eec5cc37955001U, 0xf542a61ed73fe1ceU, 0x1452fce368c5eff1U,
  0x4305243bb7fa52e8U, 0x14dab56427c3c90aU, 0xcaa9de6066352895U, 0xa71eee473795fc1bU,
  0x17addac91450404eU, 0xcd0d4e1db7d2633eU, 0xa49685f09e338c5U, 0x3f58ceef60590051U,
  0x3cf5c3da512d0ddbU, 0x65c35aa3816099b0U, 0xae1257dfe9d25da5U, 0xca38f07095609c57U,
  0xba43700ad316d6f8U, 0x34cf14e76e6504e8U, 0x45cd383b94bc2369U, 0xa45c360bb1c9244fU,
  0x17a02ed7c70bebf3U, 0xe51c927a76a28e4U, 0xb1dd291ba0155afcU, 0x1cd9982563e1af56U,
  0xc669123c1660ac3eU, 0xa1fbf907e70de4e2U, 0xefa65af6d829a00aU, 0x642079e5160cc930U,
  0x2818f759b859a417U, 0x114763af3ab5a0beU, 0x684957ca0ed5a92bU, 0x199496a0e259aaeeU,
  0x6fda390d9b319c7U, 0xcea4d6bf3b4a31e2U, 0x6509dd1a2c205341U, 0x29440fd9d9bef5d8U,
  0xe018754edc3e4e4bU, 0x57c6196617214da5U, 0xd952f3d1fbeca614U, 0xcd4fb73831ae5ab5U,
  0x6d5a9a1f42a605d2U, 0x9e64160a2d693cd9U, 0xeca264f25394acbcU, 0xcffa680733e5e7c0U,
  0xaabed1462d1d2ecfU, 0xcbdcbe00a0f6ca40U, 0x43d9381cd2e765f9U, 0x40a4da2f66a3dd9bU,
  0x3d5744479c99c641U, 0xaee326e433c9daedU, 0xd10f973b39c13cb1U, 0xa7c0dbbcadb9ddd8U,
  0x3404493019e994c3U, 0xc7f3e3f8c89ff514U, 0x95310db0a892ed07U, 0x15c5279af72cb603U,
  0x1056f05c4be9472bU, 0x31ee57bcdc5b24d4U, 0x950c2a33c3429a1U, 0xa6e72ac45ccf4a49U,
  0xec441ccf6554273dU, 0x5b005d084b00c713U, 0x18ae5f9cec0d5be5U, 0xec6efa5093ab9a7U,
  0x16e20cdf0ede6cc3U, 0x5104a2fd35ca4295U, 0x5dcbfe1813ece6dbU, 0x5c74fc32d03f5206U,
  0x26e531e35c08489cU, 0xbbaa260ed9dab525U, 0xc1e9fd9653f09146U, 0x45bfc072d9d3b9edU,
  0xddce21cf5c3798daU, 0xda12c8aa1e28179fU, 0x7b2249c2bfe6be6U, 0x5b1cdbf8aca32b25U,
  0x3765d5fd5fd37646U, 0xf846d602d0936a41U, 0x3766ffad009d58cbU, 0x411aabb58fdac2abU,
  0x2838ecd98af0255dU, 0xbe673d66696d0fd1U, 0x1236e1050bdc704eU, 0x1b4e5020fb7b66caU,
  0x506b6c55b7c7fb48U, 0x9ef4912a920098e5U, 0xc94bbd156079dd1aU, 0xc1d756c8cdca401eU,
  0x283bc20f97f22aacU, 0x6a9f29919cefaU, 0xd9a9255c11ebe09bU, 0x22a8dbd815b3a6f6U,
  0xec6c4734fb611c2bU, 0xfb29b464d89a3653U, 0xdf24c4632269b8d5U, 0xbeeab208f30b7eeaU,
  0xb853ea64d07716b1U, 0x5bea1eb2764a2a03U, 0xa3b7a18a57bdcad3U, 0x9652c044a525cc15U,
  0x223d9834444d9d7eU, 0xcf65542125060a3bU, 0xf0d3f2b6d9aed8d5U, 0x8ca0198ea7cb72c0U,
  0xf30320a9e4c41358U, 0x10ce211504af00a1U, 0xf0927a174170aeaaU, 0x9e425b067f1aa4a3U,
  0xa57bc545ecdb4b74U, 0x4249144a6c1c2e4cU, 0x576b55e4e45aa3c1U, 0xf9cfb1161bfbe8f3U,
  0xce2a4303cf34fb0aU, 0xd4f6646bb92b196bU, 0xb0894cd5b5945641U, 0x2714421fcce4454dU,
  0x5e4b52da6da8ccb1U, 0x41482fa5c1b98a04U, 0xcc6635bd2dd23dcdU, 0xf5dc2271d14a0e68U,
  0x5240990991bf7607U, 0xcdcb54d7a267c969U, 0x52796ce2148ef3f3U, 0xd73004beac3e3e5eU,
  0x640c606b4eae93c5U, 0xe1d23c6b9792d640U, 0xd1650062d23b33fbU, 0x5087249fece91919U,
  0xe840ae3abba85ff3U, 0x7153558ec6dbd516U, 0x51b826be3c603269U, 0x5232333e9eb26026U,
  0x9fab8bd69e59090eU, 0xee731ad954514f5eU, 0x3033c3e5b313e5e8U, 0x8b29281a1a5107a6U,
  0xffed099755f9e76dU, 0xe62fb56ee29de8feU, 0x6e0cca063115eb54U, 0x355d991f7655d217U,
  0xb5ce42563272e3fbU, 0x932dda34c0b50e53U, 0x972f9bb2354cc39bU, 0xdc6357fd092b2efcU,
  0x52bf0cbc982eee1cU, 0x4a264fac1e0a0b05U, 0xd5511b38de0f508eU, 0x574d58bfcfcda2cbU,
  0x23ffee8da4072bf6U, 0xc5e413626919fecfU, 0x236f78909369faf3U, 0x513691a29a4c61b7U,
  0x204d0499bac3a0bdU, 0x77c2d5276e3ac409U, 0xb5a440259038c2aeU, 0x6e5fc22697287ed2U,
  0x6216141423cb05b8U, 0xc3da33f4f5f587b5U, 0x90a3cf12e5b571cfU, 0xb4d75aeab84366faU,
  0xba36db21b8e64214U, 0x282848b5f8f0ff8cU, 0x1486da371a965aa1U, 0x589b41e9103e7cfU,
  0xde15fa8dec01159aU, 0x583895c2120d10f3U, 0xd36cdf7ad6e7de43U, 0xc3e660ab379014e7U,
  0x4f3fca199799fec9U, 0x4a399fdaf401a77aU, 0x51987952ec673b05U, 0x51eb2301f1b23ac4U,
  0x9ee6e3eb42f51abaU, 0xa6d1e2ab1ff26500U, 0xde1cc95ae3e1a22fU, 0xa13c17b3a65919dfU,
  0xe0f59d35976671c8U, 0x7a572c7806750c76U, 0xf74a7a6cda11cb6bU, 0x90d2b367563feac7U,
  0x9db645d2165bd9caU, 0xe633d7f5424e8c9U, 0xb6003ac232f3a2b4U, 0x2519a53fa4b1ac96U,
  0xe5f49f1c3bddb15fU, 0x54a90315aaac75b0U, 0x8e5d005f48ff35ebU, 0x5543d5352c11de06U,
  0x4de9664cf9da1dc8U, 0x654e3130d0af9f6dU, 0x3742dd2219f96db3U, 0xdb5ce0e4cee2b0f1U,
  0x66428e715c92cd29U, 0xf9b7bfd990d59b3aU, 0xb4e3c90703392a8aU, 0xeac04016cb5089afU,
  0x44bd26089f98ee59U, 0xb094e3f7d2388c5eU, 0x2f5c26169511fb53U, 0x1847b721ed762aadU,
  0x5aecf1384ae032f9U, 0x93a525d30a69964dU, 0xc902ae5e6a1050e5U, 0x4bace7e05bef1151U,
  0xc590540aed94d1a0U, 0x4bcdf3cabcf44721U, 0xdf62768cce1e2cd8U, 0x6a99278f312cb4c6U,
  0x234b41f1d2fd630aU, 0x756df6f0fdc4dc8U, 0xaa08dc2696bab52eU, 0x563fe0f0f276220dU,
  0xfff45c72309e3fb5U, 0xe9f87b6ef8eba671U, 0x92cde1efe14f1f7U, 0x5a2fd6a1ebe58997U,
  0xb2a6ad070b133631U, 0xa4a0ec690d65e36dU, 0xab9eecd1952ab42aU, 0x50cff21a69b6c215U,
  0x4952134c5728653bU, 0xf3c53d6f4f14af9aU, 0x167ff2f3d205b45U, 0x53033da07fa90405U,
  0x6c4b15194f1d08aaU, 0xb6a972a85f7014d4U, 0x5e741aa943b61942U, 0xd1a38742a0bdca52U,
  0xf6d0db2a28c0ad88U, 0x6b056d5ea79d5637U, 0x3801f3d2f295ba58U, 0x4de5cd512b9a6643U,
  0xe4659c64c7a7195bU, 0x36b661e33446d7dcU, 0x4863089cb45830fcU, 0x9134cadee0b60d90U,
  0x3c9eab69ac56fb09U, 0x3b3f5eabb04e9cbdU, 0xda43e3590f6fc274U, 0xc3e09ab7d792d1f8U,
  0x44b593f8c5c61a38U, 0x9faf1ee30c564f88U, 0xde3cf95b32465332U, 0xd236d0d45d4f2b12U,
  0xcc062bc325322ac4U, 0xf75253eff52c675eU, 0x121a08137913329eU, 0x92d4f85f0dd35222U,
  0x814da3fab11107b0U, 0xcb50f4a2d41ed7d0U, 0xdf910bc3cfb7b500U, 0xb3f5e46251ea55cfU,
  0x32717eba9ba3c163U, 0xee114a681d320972U, 0x3db06524174645ffU, 0xf3f948f5eecc4041U,
  0x30978838c6e43a34U, 0x35cf92be4bd48eb8U, 0xc7bf14a13fa92b42U, 0xa7c0daa5ceba9d28U,
  0xb39f5f17a9f62874U, 0xaa684fa38b927645U, 0xa8a9ee0ab3de25f0U, 0xcd3ec2504fed64f0U,
  0x37e2b74529e8f967U, 0x87ab9ea8c82e0bdaU, 0xe515839d469b4b9U, 0xeacc994efedbb023U,
  0x2aa4b4ee351f4017U, 0x38c2c8b3a2f4c8dfU, 0xd1a86a7039e16c35U, 0xa3239fcc9a02519eU,
  0x441f4e6ce12aa32eU, 0x8bababd53161fc6U, 0xf0b927964b1fdfafU, 0x1646dcc16cf1185aU,
  0xa3d3dcc2ce7658c5U, 0x99f1ca4bf4abb7c8U, 0x1492d9b903f12ffcU, 0x5b67a0eda6c9a7a7U,
  0x359fa7703c686ad0U, 0x22c960a156f7f740U, 0xcdb6b0a9e5bdc8bdU, 0x58c06fbd659fa7b4U,
  0xe36d61a2e3560dffU, 0xd3f4599e2be5b9aU, 0x9dd16a9b2039ca0fU, 0x95105a97376323a8U,
  0xbd036172c456bf3eU, 0xf1c017bf03d804f7U, 0x5abc5addb72c749dU, 0x1d6e51a98b1525c5U,
  0xf30dd8669347c463U, 0x2436d4e333f9b141U, 0xd1ae3b032b6584fdU, 0x15b46e82af79d37U,
  0x690a208b2ac0ada8U, 0xca060d1754502a0bU, 0x2fdfd69ad3ba2fe8U, 0xc1d40f02efe8c17bU,
  0x58031ae87348bd21U, 0x1a9c47c93f107015U, 0x9d5a6047b23550a1U, 0x574f47a82ac2a1c6U,
  0x6dce8a7c54f5e43dU, 0x9739576c37366d96U, 0xca0e093fd304fe9bU, 0xcf19519062eb40b8U,
  0x3ae5fbdcddf5cad7U, 0xb7b42fa9340ff554U, 0xe9b1ed0b5ee13f0cU, 0x50bf140ea3b71ee5U,
  0xd0cbeb5ad2edce08U, 0x25cbde2c81e12b10U, 0x29efd6e5db05e3d2U, 0x1be4d21da307d1cbU,
  0xd80933cc1e38b048U, 0xad1a22e623dbac22U, 0x19ffb528c10dc54aU, 0xd02024c80031b6aeU,
  0xafecf725b9d601efU, 0x730c54e3e47c1d3U, 0x36d326f4c7fd0707U, 0xb9e04eb84daae14fU,
  0x160110d8fd39e732U, 0xf1c122c8b1d9cfe9U, 0xdf07f4ef13b6e4b7U, 0xea332c13caf610fbU,
  0xfa4749362054dafdU, 0x4833bcb41e4fdbf3U, 0xcca5d325e000fe14U, 0x231923a81edd38e7U,
  0xac828215adbb53bU, 0x61b5cb02d6301b3bU, 0x21edcbe7a3d8d31eU, 0x74854be051defb9U,
  0xd6cb4ed2441e0852U, 0xed35294b57581c4cU, 0x910f6a028c5421eU, 0x1b6d5b8d8314a5aU,
  0xbd01bbb2091757adU, 0x3af4e5b22ef90fc3U, 0xcc4b5bbfdc4d1fe2U, 0x56253a4f44ca09cfU,
  0x6d8cc25efe9ff0fU, 0x1bfb48392acfe649U, 0x92931c44bfbb82bU, 0x53b0deabbf110fbdU,
  0x2411fded0daaecddU, 0x13af7071e10c310U, 0x516bc114719dac1U, 0x2b5b4521e5bbbdd4U,
  0x64a063120aef59cU, 0xca17e844f1ab53bdU, 0xb530cbd3d1de201aU, 0xf2d8d0d2590febceU,
  0x43ad19e29a2c1304U, 0x1738d44760033929U, 0xeefddf16e7d0b018U, 0xe10fe1e0b92ae5ddU,
  0x2955b258c1a3f5d5U, 0xdc565c06dfa52d5aU, 0x5b5254a8e8effdfbU, 0xbc8ceb4a0e93ef2U,
  0xd4e120b2f3435eafU, 0xacd0e6bad2ea0a53U, 0x365e70aaf1e67fd0U, 0x565f47563cd02fddU,
  0x145558ef50f53810U, 0x1820effffb4c4324U, 0xb4ca46dfa01d134dU, 0x362bfaa0e0a10651U,
  0xa4899e37f15bdf4fU, 0xed8dc340c1d74d7U, 0x961241ace953712cU, 0xbf4bf79b74e1635cU,
  0x316e159548708e43U, 0x1e89225f76cfb91U, 0x630b23bc6c726d8dU, 0x53bdf2ceb4e313daU,
  0xf1e609ee9852d54aU, 0x2977cabed23f1a2aU, 0x5dffa99d8fb00ccbU, 0x306aa3fb52dff074U,
  0x17b0a25141588a4fU, 0x4a14b5b83f4fa5c6U, 0x30f0ae691cd30c5bU, 0xbe0ad25c5ed26818U,
  0xb92892da2d4b18b8U, 0xc6201e9e95a8d8e1U, 0x9afb34dabebd504cU, 0xb3f0627720e8100bU,
  0x5558ea1fd71f063eU, 0xae030fdf51d6e6f3U, 0xf863065591c7b61cU, 0x550b087822422fa8U,
  0xf519a29015160971U, 0x2311c85ae4bbcf36U, 0xfdcb74a867e16810U, 0xbd0c783059f5238bU,
  0x8b57f36989a14c3eU, 0xb63e5cabda88a65cU, 0xf3b77655eecc3d2aU, 0x9a05187c04172d13U,
  0x10dced0a746d3b8U, 0x1fb243a1c3cf302eU, 0xf72c883219345375U, 0x192aadde4cef89ccU,
  0x890f72c6c2c3d1feU, 0xc1afacecba3c602cU, 0x3e1308a0ac02fd04U, 0xb8aa93adedd960d4U,
  0x7557ba12893e6f07U, 0xa919fcc70ac71f26U, 0x5f5cb361631a3400U, 0x224ba3b0e6aae4edU,
  0xba45cd146df85bdeU, 0x1e162927e155ad48U, 0x513bc8682c145473U, 0xc613f79fe047a7d3U,
  0x3b2b9b53dfa325cfU, 0xe3dbc5590ca42dfeU, 0xf737072361f451c6U, 0x776e68a0b8678b1dU,
  0x9a505c8479d36e1U, 0xa369d47216f4beffU, 0x243de0dcd0a42edeU, 0xf06bf806214e409dU,
  0x5630ced04c09def1U, 0xc2c2b90c3f1cfb49U, 0xda18cae6e3e2ca50U, 0x61731f03c56828baU,
  0x16fd54f3b028a954U, 0xc31c0c120ecdaa59U, 0xfdf5c2d20ce6c4f8U, 0xb64ad41de7e6f2adU,
  0xbd46c6f8570f6f21U, 0xcbea7133c3f2ee2eU, 0xf41efea032ece3cbU, 0x95c68f254b5aeb06U,
  0x537fe017435f1219U, 0xccc1aa342f47436dU, 0xdab9f343bfbd0a99U, 0xa0fb4b33dd5eadceU,
  0x43ef0b26fc0f25b3U, 0x10a10ab6789cfeb4U, 0xf6c3d9f4d35032f1U, 0xa5499b27e534421cU,
  0x4d432a060f6bfef7U, 0x4fe85d0017155240U, 0xc5da364a311fe910U, 0x3b0b4b36711eafc5U,
  0xf2c81cefbd25ed47U, 0x543401392114043cU, 0x4f02c1056cdcef70U, 0xf96ca0282fb8572aU,
  0x11acbe58be0eb546U, 0x5744c1b2cb249a7bU, 0x4c39b9bfa055b6a7U, 0x47e204f645a7aa53U,
  0x491a062ae740291cU, 0x334e49c6aefebbf5U, 0xdc252dcdf5f754a3U, 0xb69c3adf6414fea1U,
  0x1b0239d5c905f42dU, 0xe2571645dd395794U, 0xc5f26b4d61283d36U, 0x70b91d51350cec0cU,
  0x3441bc003fd62b1U, 0x142f49c9601e6e6U, 0x2ddeda944bedfca2U, 0x13c09cb72e2d2d55U,
  0xff1c4a25f6bc36b9U, 0xf83b4330a0f95a30U, 0xc462eaf60e5fe6e9U, 0x2052e41aedb96811U,
  0x2ff641260f2523eeU, 0xbcb31fc52dc6dda5U, 0x6346511a469a5dd1U, 0xc2af99975c6318e0U,
  0x5a1efa3653472023U, 0xabfe2452f3d64731U, 0x29570d9629f72214U, 0xb7f2ba14c2dd60e3U,
  0x26ef6540c1ce26c3U, 0x715f008d64bd006U, 0xf7f1fe1fa129ca36U, 0x6d611416b4b0337aU,
  0xe5ca3c5a90ec1d0dU, 0xddf18dd73069211dU, 0xd445003deda699ffU, 0x551ef865b001dfbaU,
  0xd751fb640c96350bU, 0xc4975a9edca5e9c4U, 0xa5ade947d9b03b8cU, 0x9d4acc5da15007b0U,
  0x2106bb248ec0dd71U, 0x97fb0cd7f9eb1fbdU, 0xb2fbd199b2f4bd53U, 0xd2bcea4fb629210bU,
  0xee2059e9c577c69bU, 0x97dc1d3ed4a8f235U, 0x6dc2b16aeb1743a9U, 0xca05ffa201072101U,
  0x22015c6f6c8b5ad3U, 0x1658ed152216f35aU, 0xa3fb41a0f9f6dc2U, 0x530c4f87b5e0cbe6U,
  0xb65b4cd29497c3f3U, 0x5e01114f9e1d3a3aU, 0xbfedcdaca0ccd208U, 0xa69a711f06df3a56U,
  0xb5c73777515c235fU, 0xb1ed238acb462742U, 0x9efb39bc5a2cc3d8U, 0x8db0a0428ae4b634U,
  0xa93cbf49edb09c8aU, 0x9b3b86c1db903df4U, 0x57310f9facd8ee9bU, 0x510334565f25f565U,
  0x233b9df656b0c3daU, 0xa2d5614ffdee100dU, 0x6336722ab975fe60U, 0x98d7995181c96be4U,
  0xdaa5261b951ce313U, 0x594b21acaa1d523aU, 0xf8eb9ef5d291c968U, 0xf73ebbe4350edab6U,
  0x735de83c161071dcU, 0xd04d66bba970a062U, 0x3e50fa42049f4df0U, 0x601b5b0f0af72e8fU,
  0xa8a5a02119d44568U, 0x1ee009249ab69305U, 0x9bba0c65e3bd4929U, 0xe34e1f4839b7d44fU,
  0x94ccf00cb7215b3cU, 0x54bf68a91f8e8673U, 0x385ab9b4caff051cU, 0x7a5e93ddd4adc8a2U,
  0x50bb0c4de1af1df9U, 0x4c0be173cd5339dbU, 0x545858d7bd9ea107U, 0x94fe4db4a520f573U,
  0xe08f45b5d4f26021U, 0xe37e817fe95a8c3U, 0xef3e078d0db33790U, 0x372932e5edab7c56U,
  0x9ff802136d0454e5U, 0xc9b287f226a4f6aaU, 0xf56f10323af4980bU, 0xb31bcea24d99716eU,
  0x4a7ddf1a5eb86c3cU, 0xdf7a7acef14fff7eU, 0x981a62fb5e29e954U, 0x49c1de0bf7d22bdbU,
  0x601b2a0f53e75d61U, 0xbdf20bfdda125e11U, 0xe36fcaa230f21131U, 0xd53992f809e499c5U,
  0x3f238da4046d84a4U, 0x57ed88b0e85857faU, 0xc1c350d350a62e06U, 0x2adfdf9e5d77fcd2U,
  0x4d357141551ec29fU, 0x5fd020b5b6dd8ebcU, 0xa36b36b602faaeddU, 0x9b6d0da30872138aU,
  0xf8d3c2e993974fa3U, 0x9490de367a4fc2e7U, 0xc94ac5dbfd13c582U, 0xe01f1c5cbd6e8ff4U,
  0xe7153781dac830efU, 0xb243c0f5081def5cU, 0xc7e7504909241c31U, 0xdcb2054fdc89ffbeU,
  0x1b20693381968dfU, 0xda8e60952404b8faU, 0xbaba151dde0ade22U, 0x8e0466c83cd2a5aeU,
  0xca42bb867e38ba44U, 0xe0d6e029ecb12640U, 0xee84b4c1ddadf734U, 0x765c0611c22c7635U,
  0x5b37519b7c2a0ccU, 0xd2e0c9cdb4bdea38U, 0x9866d24999546f23U, 0x185f519bd01dcc7bU,
  0x18383e19b522b6faU, 0xd3c8c4a66021752eU, 0x40b7e826132c8d5aU, 0xa7fc4a520ab706c7U,
  0x45a0a308fe96c8b3U, 0x29f5aacfdbe015f5U, 0x5f7237e70ef43a00U, 0x3a59b1979ecdbccaU,
  0xae22ba01a25e3765U, 0xb06f1b24d535700eU, 0xb0a8d8fcadf7e0adU, 0xee73de68eff4ae9dU,
  0x586f816b180938d0U, 0x3651739f36a9006bU, 0xdf2f03988d578807U, 0xff5d94d3ed565461U,
  0x9018ae957f505cf7U, 0x127c909e24216aadU, 0x9f1796c8b140025eU, 0x13d0876552e22418U,
  0x53d4230896d1bc00U, 0xfeb01293248aa833U, 0x4371b9bc4e16d7d1U, 0x26b4e5af86a73b97U,
  0x6ac221752a02a811U, 0x430b71b73e243031U, 0x14adab9cb6f35762U, 0xbe98b5ab22fe15d1U,
  0xcaaf74f8d2d2fb3aU, 0xd4e2d1729f3ed25dU, 0x546daab303b055e9U, 0xa62893dbae45c192U,
  0x90d4ddc16b1a4fd4U, 0xcd9299df45006b19U, 0x443864321e50131aU, 0xa4b0526f5103d2efU,
  0x8282a4899f97f23U, 0x1adcfff9a69b890U, 0xf26966f749b60ce0U, 0x17441fff4ce3feacU,
  0xa119244ebdd5f1ffU, 0x473c0a28f5958cc3U, 0x92513ad29815f152U, 0x3f1cb657169ff273U,
  0x174cafe9a5d65711U, 0x39bea5d531fd4468U, 0x5d4dcd994357160fU, 0x6a1f341e558ae33fU,
  0x121dd7689304663dU, 0xb58fc2333a521473U, 0x6542e61f178c0836U, 0x9c180853f44ea2a1U,
  0xf6ade75a18bc5791U, 0x474ef32a76499d50U, 0xbe36b92af3ffd804U, 0x3851aee097ef634bU,
  0xedd4ed2e3039f918U, 0x2bc9240b46731caU, 0x70e434622e4ed41eU, 0x6ce5bad3bb975691U,
  0x97dc1d233548c53dU, 0x98c97836bc3ebcd6U, 0x4f106a5b862a061U, 0x439a74b4da462ba9U,
  0xeef65d0742cb1c96U, 0x6ba6c8221c598db5U, 0xd4f4adeb5590a3faU, 0xa96007ba6b429a19U,
  0xac3a3a45dc1a8f6fU, 0xa299742a75c8375bU, 0xff139e10ed1bbeefU, 0x26bf96f5f7d52a68U,
  0x4ea7fe460a2f7526U, 0x4fd60c12c314a3d2U, 0x8d5836a0c802e457U, 0xfece0e4f8fe5a1c6U,
  0x1424dcc52a3d945aU, 0x22db185213a8eacfU, 0xbb902ffc7d020abaU, 0xf00e020fb2bd8f3aU,
  0xce23b6a3eaf743cbU, 0x2fad406550b0d3dcU, 0x2e037aa009e3f89bU, 0x75e60dd2c9c71cbfU,
  0xbc3cf89bb5f8e2b9U, 0x24be8974ff49aa4fU, 0x222ab49cbd88e5c8U, 0x41886aa7cf48346eU,
  0xca63e8e850534947U, 0x26964749d1d5c418U, 0x5a93e1eaf3fe24fU, 0x8d60d865a1eab172U,
  0x2ceeb3524b3f483eU, 0xc625d633ad1f4862U, 0xe910f2d67161ed8dU, 0x62f7e54fa048d39dU,
  0x2270bfbe8686e493U, 0x70063ba1f5719eecU, 0x3831aafd71aac2c7U, 0x744c8655886af2c3U,
  0xadd7f1511c478de0U, 0x1821bf649ba92317U, 0x5c94279d60cdc12dU, 0xfc2840689bd6e1edU,
  0xf8c0dbfdc8fc4554U, 0x98756c46b657b6c4U, 0xc0526234401d605cU, 0x659eb7269fbb09fcU,
  0x28dda4a25386c0e2U, 0xc43912ffbc737530U, 0x9c39adfa23d8731U, 0xdad2efb6dd5c47a8U,
  0x5e659325affc48aU, 0x9905fdf491d81536U, 0xd366e8c9890f6355U, 0x52cd81a4bd7de19aU,
  0xe63ab54146f20861U, 0xd5f63ce3a2f0c30fU, 0x914071490b43f1c0U, 0xf6ab2eb2690458deU,
  0x595c622988ad0bcU, 0x17db209d3e343305U, 0x17d796d46e60bb3aU, 0xaa4fbd0372b6b030U,
  0x6d214914f90fbc18U, 0xdc941a40ddb396a3U, 0xba383b98cdf61128U, 0xaa2c38d613232a3cU,
  0xd26b903631240449U, 0xbd69b4e13aade9c7U, 0x7469a61642005810U, 0xbb32043a9146de96U,
  0xbc8e7500ada2bae2U, 0x936b991a08e90514U, 0xdd2a135a8cd1eff6U, 0x4f6c1f71bbebd18aU,
  0x8cb1646c44bbd83aU, 0x1508a43189b750d3U, 0xf9f8f21440d2eb15U, 0xc9f72c0ed3c6063cU,
  0xc9e448dee808f442U, 0xba4ca2b730e7fa4cU, 0xbc16e8f7b9220107U, 0x41cb25fd45ebe0cU,
  0x441f03c2bac5e350U, 0x9d901e85dfe0fd0U, 0xb9385be5581d20c0U, 0xc3ae3e1d13a6e4c3U,
  0x1d20f339ecb5e12dU, 0xb44803a70b0f5855U, 0x3bbd09bb9f4b0815U, 0xb829fec2fc052cfaU,
  0x2d7038f9f33d04b5U, 0x161f0fdda13712d4U, 0xcdb1604549d2cebaU, 0xeaf24ddb3544ed03U,
  0xdd20f9f7430839c8U, 0x45b9b0a72eb1cbc1U, 0x192e2be0434bbe39U, 0x1fe741204ca81dfcU,
  0x4bb4181b19bf03e6U, 0xc8d84a4eb7bb2239U, 0x3cd344cfb11d3cf9U, 0x31d6cd5f064b3b7fU,
  0x426e4a2c3c612f2U, 0xbcfe9e3063d2fe3U, 0x9c0ac2d5affd2534U, 0xcfe9f3013e6db2ccU,
  0x52fa40cd010ac61fU, 0x37e133cd6d47cebfU, 0xc1e1f255c52c32ccU, 0x2bcfb604fbd8464fU,
  0xf7e2d50f4a31b5b6U, 0xeafe1b3e44aa1bd8U, 0x274804d5d852eb1eU, 0xe6608eaf8d20bebU,
  0x1e24d91ce7e4d31cU, 0x30a9d6bbcf62acafU, 0xcef2391fd52f1bf9U, 0xe0622d43c11908e6U,
  0x38c72d03f3e5d0e1U, 0xe2f9480e5bccc101U, 0xdd300f00f7feae12U, 0xdddbde0ad315e256U,
  0xa9ba21c5295c5ba2U, 0x28035e12da08e547U, 0x23e2eae0650111c2U, 0xc217ce3f17ef4c28U,
  0x3fe10c41117f16e8U, 0xfa071cf715f00233U, 0xaf0a3610ccb0f657U, 0xa1fd2c5647e09b30U,
  0xfb59ea4bd60b4b1aU, 0xf8ba2f3d2551e4bfU, 0xdae840e8dcb10e2aU, 0xfd13d13616dd1bb2U,
  0x7d9de5b042c03c8U, 0x1fb5ac11dbca50c6U, 0xe817686c24c354f7U, 0x4d31417bfc4cb0d2U,
  0xed99c26c8952c7b0U, 0x1335f6ca66a83beeU, 0xfbbc42264b848662U, 0x913b0b20e33946d6U,
  0x6bf572f58dfbb2c3U, 0xfaf9446bc43e685U, 0x36de4997e43a59U, 0x2892ee71485f603eU,
  0x188aa84c1fea2968U, 0xe05715ea8ce62bb6U, 0x90ab408ed444aff4U, 0x3cfdb18d2ca0733U,
  0xbf3e0bdaeb4494ebU, 0x569c3e337d63a0efU, 0x4bcdffdb1f308744U, 0xf68b042e5833f048U,
  0x8a6b22e30c516f2aU, 0xa6a0ba2463f86f39U, 0xe739005c41776fe2U, 0x1e6bb70755791792U,
  0x23153b0b64c374fdU, 0xd6d3acc913bfb2U, 0x65a5ad54d6d75c49U, 0x42f1c422add2b804U,
  0x4d6b4bda0d52a578U, 0x66d85fdc122a5af6U, 0xd9a15d701884b7e6U, 0x52476f33cc3001d8U,
  0x1c18c3831e0fb739U, 0x39997b5b23e3e14bU, 0xd56ccafff272a477U, 0xa758cdf81257cac4U,
  0x8b440c552d93b9f6U, 0xc1bbee1b0ad9e0d1U, 0x30cc52180b6a7adeU, 0x41054fe18cac9fU,
  0x37bf18d0c002206fU, 0x3d35fcce0a039720U, 0x2139a534f02508f9U, 0x22874c65290b7f06U,
  0xb97f6af719db8c24U, 0x1f9b54db38416f8U, 0x9c99d2b70c2f7225U, 0x429deda0bff4341eU,
  0xd4522cc44aa2b3c9U, 0xdfe75468ded1611eU, 0x466c3407096add40U, 0x22d0278af262170dU,
  0x363cec30335396d1U, 0xc0fed50d38b7f198U, 0x6036291e6014f335U, 0x73588a0a9299696aU,
  0x365bb0f9434c982dU, 0xdbf830c7a2be4d63U, 0xb09d3adfcafba705U, 0x1833e34d8927c74dU,
  0xe6037086a97700b4U, 0xa598cff788a19900U, 0xc8e6084736955a60U, 0xd5ed20c2bfa8b4d0U,
  0x61202e3fd7f515d5U, 0xe821eb5815fbefb1U, 0x19294108e6c74413U, 0x5f25e82453442bbeU,
  0xad33d8d7f09903ccU, 0xf2db553a5a25be1dU, 0xb84bc6c6dda9e1d0U, 0xaacf10e24f374038U,
  0xfbed16c75fe0a4cfU, 0x43151c19ff49cfefU, 0x3c033f18bad5c353U, 0xbe5ad90d06b9555eU,
  0xe23644f956df9e03U, 0x4f3c81242098c4c4U, 0xe8f21b682fd542d5U, 0x7615fdf092efd3dU,
  0x4bff1535540b1e9U, 0xc74948d5d8ffe24cU, 0x14e7350fbb0e379dU, 0x58dc35111050bed2U,
  0x1aad13d4a6d5ac1aU, 0xa80d516cd5e9b323U, 0x45de43361120e7c2U, 0x49052e0dc91dc1bdU,
  0xb2227415d05638e8U, 0xe2e5a6e97122e7f3U, 0x1401a2d9133a0ce1U, 0xecd43256ea1fadbaU,
  0xaa27d4d8b53f3c6cU, 0x679b4732ec5da1beU, 0xb148e647b00b3ea4U, 0x35f3f3cedb411c90U,
  0xd844e1c515113fe6U, 0xefbc42af7e1e1b2U, 0x56ecc22bb30926ceU, 0xe7e4e6dac7d1c50fU,
  0x3f1474b4e54bce1fU, 0xcd5a37cbdca905b6U, 0x1021c5d6b2bbf80aU, 0x5a1a5ad9f189120U,
  0xfc20d49589a36f40U, 0x67fc15ec95ccc5bbU, 0xf3bc04144435abeaU, 0x1abea3f9d3287611U,
  0xc7170f19c140e9c2U, 0x3f55fb51dfe23a02U, 0x4f330a00a9c7c216U, 0x6aa29acdf9bb0a38U,
  0x4ffcfdefd54757c4U, 0x372c17f8513decb0U, 0xe542ab4815af770dU, 0xaacc331329f117fcU,
  0x23fc33a460d8ebdcU, 0xebf847e5c5fdf947U, 0x434ec61b2356b40cU, 0x2b1c4505cab80136U,
  0x5329c9382f10e4d9U, 0xfa0c206dc2d20ef2U, 0x5347ee584945d778U, 0xcf9201ff381b4d0bU,
  0xee9514f56c030f60U, 0x4c672bd10ed91ab3U, 0x9f434efd116b1296U, 0xe59a36f625655c29U,
  0xd75bde02554dcf04U, 0x23c9c0a6fc10f648U, 0xa2a247d70f33b4d5U, 0xf319e4c1c029ec0bU,
  0x25a6cd2cf3dbe6e6U, 0x150b17139ad2cfc1U, 0x5d6fa6cb5ebd31f0U, 0xd3f815c65e160e96U,
  0xb8c8e329e1d52677U, 0xc80ee55d2fccd7ecU, 0xe497ce0af8dcb994U, 0xac2b6f601523f1deU,
  0x409ae2b1e1fa0dabU, 0xb4b4408c5d906795U, 0xa33b3fba1b513ab1U, 0x98b8f8ea36f3b2f1U,
  0x6e15b2e674e11a25U, 0xb90931f5080468e6U, 0xa27111bc020cd1edU, 0x11ad81c2eebbc18fU,
  0xfdf7396d415e1f54U, 0x1e3ffe43ad11c170U, 0xb591646c74bd0bcU, 0x24b55c97405414a2U,
  0xf8af3256e00488baU, 0x9960fa21c7e94eaaU, 0x4fb136c2314d5e93U, 0xdaeb136bfd409009U,
  0x48663e31f763ab67U, 0x2db56e69070a481cU, 0xe734a8e6e05157b6U, 0xee1203439cc644acU,
  0xa6d854a00d1603ccU, 0x5d99ddba90a82e1dU, 0xe52eb404d51a65b7U, 0x96c6f39f0740c05aU,
  0x16fb46563bb3e1e6U, 0xb9466aa826122ed9U, 0x1d420db919e53acdU, 0x6a2a162e8fc3044aU,
  0xbc111642c04df9acU, 0xcb60e233b462f25eU, 0xf9f3ca04e4822f9U, 0x748e9861216cb2b6U,
  0x5a6f214779f05f9U, 0xfb1b124fd89fdf3cU, 0x95a345c138b31bd4U, 0x921e22e61ec81157U,
  0xb22648b8d8205ca2U, 0xa808a524d85d59dbU, 0x9d4a3840c829aadcU, 0x422e62ea2000f5b5U,
  0xf655df15bf1f981cU, 0x8e3a9be103ca284eU, 0x122e20139a1668bbU, 0xd63fb44903f2a09fU,
  0x9edb7538cfe8c34eU, 0x918e97c0afe35a96U, 0xa8a3e2d7cbb1cf07U, 0xa81039039ff22412U,
  0x30eb0ccb2dfc51ebU, 0x340322f2a85a9d33U, 0x930b0c5fb6eed5f1U, 0x395990925c425f5aU,
  0x5c375ebb9011df88U, 0x5ddcf716306d1344U, 0xb3f119ba0a46eeb7U, 0x226053092d35a790U,
  0x5e0ef14eb6a33f10U, 0xcc6c6fc5c343f02bU, 0x62165b2e6a1281U, 0xaaf855cd0795ab4aU,
  0xe30edeba12c9883bU, 0xa91ce33fadaa99bfU, 0x6f18c3d46fda2722U, 0x116d4a492308a6ffU,
  0xa5be2cc818a6415dU, 0x37c2718ed52faf68U, 0x92ea4ec0ef1c69c3U, 0xccc11a55ea02ed04U,
  0xc49971c7b0e7bf36U, 0x9db28d0e3d4d5630U, 0x65dedb157018e5bfU, 0x2245b917341112b9U,
  0xac666868654f3c9bU, 0xd73cf891b49bc7aeU, 0xd9edaa102ddac0c4U, 0x66b14d95224f2bc1U,
  0xf6bbc42dcd4d5f62U, 0xea5acef1e2759e54U, 0x8fc229a10dce2940U, 0x4412b1a594ce9a1eU,
  0x2bc6dcde79a82648U, 0x6d3f0509c5c1a52aU, 0x5277efd6280ce512U, 0x4445eade155cb4bcU,
  0xf9e2491a6e43463aU, 0x5e9084ba9d8c227U, 0x5437c59b2a8f5592U, 0xe0950a2a69ad4199U,
  0x733d49f7258d0ec4U, 0x598e17686647f2feU, 0x9e3e74d6212e651dU, 0x2b7ed44b2154d25U,
  0xca28a647cec018a7U, 0xec32590ca762ea67U, 0xa8a1e76873749fd9U, 0x792cff98f893c9a5U,
  0x936be5467bba982fU, 0xd1036ac669ff7aaU, 0x5e8d6bd2abe2e857U, 0xdbbd454795dafe1aU,
  0x4c077513df17c293U, 0x238903ff0e95b5f0U, 0x5af6afaeeba44242U, 0xa78832bbf28af93aU,
  0x1504e4da0c53eb1eU, 0x191c6e43d528dc62U, 0x1dd404d643eebbbaU, 0x2d47c3c2ecc8a394U,
  0xc9a6e92a0751c045U, 0x6caeff11d9f0454U, 0xc1c6a63b20e4b53eU, 0x1ac1d41f49ae13e9U,
  0x2be216debb15fc61U, 0xf73297ae52e23bc2U, 0x4b53fc214ac1bc63U, 0xcef4dd9bb2baa292U,
  0x601f28b229ade3b9U, 0xefa111c32257f9b2U, 0x4ce55bbc9803a448U, 0x411bf362c09cbd04U,
  0xf7ece6ebc152d02cU, 0x55adf95666f9c042U, 0x48d054d2be002b38U, 0x5d3329b3b325fbe4U,
  0x18db69972ac62164U, 0xd823333fff5815ceU, 0x207185ccc4d3e51U, 0xa9131617e145cc25U,
  0x57aa38c2baef0f41U, 0x1ecdd22dc304b260U, 0x96b5dc33b30cc72fU, 0xc2ed49284d2bceafU,
  0xab01c3f9e918f481U, 0x71a1a5a6047ea1dU, 0x1714f02618d50411U, 0x144f64421a1d6708U,
  0x4ab81dde04ce4dbbU, 0xbf223eeb1e605febU, 0xc5aba708cd8d3a04U, 0xbd2e2d44034b2a65U,
  0x8442fd1102a1c62dU, 0x392352b0f718c206U, 0xa9eeac09ad34a9e3U, 0x5bc7405ab19351b9U,
  0x5a28323ab0573587U, 0x471caaf2cd150d4eU, 0xc926b0a99611cdacU, 0xf512bf434ab0a81cU,
  0xe1e16128d1130f5dU, 0x3dd5b5e01c05aaa5U, 0xbefcf32813eabd45U, 0x3bc42831e6a80467U,
  0xda19e26bc806011cU, 0xff27ca9b075afdfbU, 0x9ab23cb0c33be401U, 0xb3d5911e71d7e84cU,
  0x3c5ab4a94f73ddU, 0x4bf5c3f5b4adf20dU, 0x4b5cec13e8e1bba2U, 0x460f351821be54e7U,
  0x4d0cd5a9b4e01746U, 0x13b9b2ab104daf4U, 0x4caafe8d91da0a17U, 0x67ea977f48b6ecc5U,
  0x35c4f4f8589904d9U, 0xf66966a4d5cd6d73U, 0x590b5d2ce1cdcdacU, 0xc2442e9df7047719U,
  0xdca7896b106e9753U, 0x297338e706552494U, 0xb1d9ada411c4505bU, 0xf83230ffb317fbd3U,
  0x1cce91c5c85c10e5U, 0x360a2e49a5396e4dU, 0xa5ebcffc3b10ef05U, 0xfa942ee7eaed0f16U,
  0x99e4d2ef8bb83ca8U, 0x1a1b102f635010daU, 0x5cf42b644162c10fU, 0x35fb1032efca00caU,
  0xd508cb164b3bc150U, 0xfdf0ac4e2ca3a478U, 0x641c0ac6f55b6c0cU, 0xab9a28f7090e22ceU,
  0xa6dcc99f5ba26a29U, 0x5d11bb6deb26d2b2U, 0xf02bf25ec5299bedU, 0x74285a799366004cU,
  0xdef1b1c35610b616U, 0x64ab60a6ad068636U, 0x9570e347bffcc125U, 0xc6f7110e30fb0ff4U,
  0x13f9a655b5248e7U, 0x148a43e9f2914042U, 0x912f980c87e11c73U, 0xd274c63a19fc5800U,
  0x8f512198c1077821U, 0x1494a6c5167f26f5U, 0xeb758d9cb09a6da1U, 0x6206f269f5c14c56U,
  0x2c21f743fcad1ddU, 0x66ce6a41f5f56448U, 0x6aa531b459d85f03U, 0xc03fe8c5a96367daU,
  0xbb77f7331043083eU, 0xb1cf0b8b26612551U, 0xf5dabc2ee6feb712U, 0xab9143aa3c5de207U,
  0x1fede093d9e1d916U, 0xe42c1cde665c4c91U, 0xeefd363b32f1f96cU, 0x8ffc718eb03fc89bU,
  0x191d762894d05d1cU, 0x6e1040f0ce992d09U, 0x4ff357de5809cfc3U, 0x795da0fc424a1235U,
  0xfbfa4590529cd61bU, 0x267509ed911e21e4U, 0xbe03f3b8b92e6c64U, 0x24c8b72a7755dbdcU,
  0xfaa27ecd6a6b4332U, 0x6d73fbfc99a751f3U, 0xed92ad216bebbfd1U, 0x90dcb93d701d5da9U,
  0x17bacc5a84b7aa52U, 0xf8df0f205725113bU, 0x4fc3055fe923e404U, 0x754c4ce558544b36U,
  0x25eecbf3552edc58U, 0x4056f265a7e3c204U, 0xd0fbf82b18dfb1a6U, 0x1cc1b13a0ed0b241U,
  0xd3b1cfa38de8cdeU, 0x4b2634d35664b500U, 0x5e95cc2a53b0661fU, 0x7fc7184be424ce4dU,
  0xae406a36256bf217U, 0x6f456ac77216689cU, 0xb53954da6b48d24fU, 0x5b0729b4eb298f4dU,
  0xb9dea2aea426a9faU, 0x2603dc3319075713U, 0x45c91e92faacb870U, 0xcaccc92f86b8f82cU,
  0x5438746996c73ae7U, 0xb3b051d9fd48f751U, 0xbc0cc73b37011896U, 0xc204ab54adc71ec5U,
  0xa8e654c33ea80925U, 0x510fc1e323c4160aU, 0x3360a99f0ad96bc1U, 0x3ec41317ab952517U,
  0xd72d273afa95ac52U, 0x98481538422240e1U, 0xefc6cccdeaea1f3eU, 0x5c5d901ec44beef0U,
  0x9bb330d2cdc49e00U, 0xe2cd9e2d8b364e5U, 0xd9e7fe6274d8a191U, 0xf6cd74a7f75c380dU,
  0x7f3c25caf6201e9U, 0xd5599edc9177593bU, 0x3ba9b4d6bc8f46bbU, 0x276ac53bc4ae15b3U,
  0x23a8587532ceed4dU, 0xecfb3f3948d99ff9U, 0xc7f84849e2684d07U, 0xdff3ab954cde6ec3U,
  0xdae7ad15ad4729c1U, 0xf34ddefe979f4e85U, 0x3c58c9451ef53b0bU, 0x567105bc1464a255U,
  0xfac4f00d9fcb56e1U, 0x4c4d0a04a11774f4U, 0xd6b3846905f6a2baU, 0xc64932f76718586bU,
  0x908cbc119160889aU, 0xb9eb48513fc6899aU, 0xf0508812fd37c358U, 0xee6c71eab3b96478U,
  0xd0fbc675e1fb3a5eU, 0x6e0f6c0d8efcaab3U, 0x39ff904cccfc045cU, 0xd2d5898ce13cd1c0U,
  0x4037e9590a450b72U, 0x67cb2fe4be9bd412U, 0x61ac97ff5d9f02e7U, 0x225ded34efcba1bdU,
  0xa4b84fd864938e05U, 0xc80fe95e3407bfd6U, 0x53c7bd3c5cf0dc2fU, 0x1494e0674f29d110U,
  0x15a4fab2cbc4e34dU, 0x143841ac465bf1ccU, 0xa35894c9cc1279a0U, 0x24fab70d20584e44U,
  0x3cddfc23b22ed60bU, 0xcd376fbb11ebd731U, 0x544cae5542f740fcU, 0xf8a73ba3ff5f23d6U,
  0x52ea66541ce5ed64U, 0xe1606335bee353aeU, 0x599d6f012def17d0U, 0xc9b91cd6e4963e4bU,
  0x9e1b1c93bd621709U, 0x665c323bbee3eb26U, 0x5093315552c29d7U, 0xe39830170d100bcaU,
  0xef0ae8bf0681f6beU, 0xfa094af351921e51U, 0xcaa2ce09ecab0ddcU, 0xf4916f9b4aa30063U,
  0x3fbf0a5f12f2968bU, 0xf3f3ff6956140133U, 0x2cd56a1a325db8a7U, 0x3aaa306d97f0b05aU,
  0xe1a6599f0f9e176U, 0x3acc66153c99202U, 0xb8ad386c2839a1b7U, 0x481c19495cddac0aU,
  0x9e33c736f8569659U, 0x16e536121be3171bU, 0x1765010165cfc924U, 0xe038197246064cbaU,
  0x99ca3f3cc1dd2da4U, 0xdd555c14c65e3e39U, 0xf85cca67fb0a0217U, 0x64a93c06ee20973fU,
  0xf61ff8a1a464fb38U, 0xd256f8f32c3438a5U, 0xf3d2f0b1291396acU, 0xaa2e083532371f3cU,
  0x320f6d6f0a3df44cU, 0x530ec7a6e7ad3d47U, 0xfb4066d74020f297U, 0xb7dc77e5f03bbf9fU,
  0xd4dfe208d0b5c29eU, 0xe01a0398c8b43fc6U, 0x6809211b2ac67753U, 0x360190366a19a461U,
  0xf2c3fbf845c1d4bdU, 0x97a1e393a7b33315U, 0xe9dd5fc12f0dfa95U, 0xc451b652497acc12U,
  0x45abfc20093942dfU, 0xcca03a34223b35e1U, 0x52c02e53ad53e665U, 0x301287a063991ee6U,
  0x17f532869bef8e88U, 0xb2d3e5fb364ed96dU, 0xd1151b8d65d40708U, 0x6a45853267758529U,
  0xc75a51bc3d769412U, 0x6e4cbb4408bad088U, 0x166f1ee291a78c3cU, 0xd4f90dda2c43c30U,
  0x33fcfd4bd9b6ab29U, 0x59f242f3eae6cb0aU, 0xb575bce59fa0aa5cU, 0xcdc4ba0bb3915762U,
  0x315e9f12a745b920U, 0x9675a701a290016fU, 0xc0de14efd8f1ffb3U, 0x358f97107a4c78c5U,
  0x860545b1e86f3d89U, 0xc058e12e575f559fU, 0x2452d8b3bd0ac49U, 0x3074ea1dde9d306dU,
  0x434ae191e9f39b7U, 0x654d7d441785f5deU, 0x97f5226e30627cedU, 0x5703a7708f51972dU,
  0x1875a251132d88e5U, 0xfa8e96f1304cae2dU, 0xbbd16fe25920ca4bU, 0xa02ecc9f0ccd5884U,
  0x6769c1c2b3c66e9bU, 0xa9c826d2329b23b5U, 0x72f0e758dd7a09ddU, 0xe91f851a72f9f63bU,
  0xf262014575007fe1U, 0x31e49a47839dfbd3U, 0x5dfbd836310e962bU, 0x83fe1b93e2d5915U,
  0x3837fea41faeedffU, 0x79ba5d5f9182299U, 0xe4e5d5cba5b4f60cU, 0xda3d54b12454cb38U,
  0x602cf0a92cf489a4U, 0x8619cd34d536d7e5U, 0x6bbbfa247e358471U, 0xbb3a35b4b0d832f9U,
  0x481171b7d88c46d8U, 0x4066e2ad1a138c2aU, 0xe0a1ad3fff1fe2a5U, 0xc56cf2511da49cc5U,
  0xa2c6762350fa34cU, 0xc5be5c39a6425a59U, 0x6ce39923169d1316U, 0x8efa8191ce35ca74U,
  0x67e762686b9aee3aU, 0x98345cf0a0edb83eU, 0x8eff9ae3d013be6U, 0xf5cee00ab1f943b9U,
  0x4445156310d32048U, 0xbcf7f4a973c838daU, 0x592039433c19cba9U, 0x164df8f25654cfa7U,
  0xd8562cb65d2daa41U, 0xe50a0df1a1a8a847U, 0x1f2ea44341f6df16U, 0xf9d0ac073755b7bbU,
  0x226016ffa9daeec4U, 0xe91164d8b5dfa5d8U, 0x11e652294fb465ecU, 0x36d3defdb8077f50U,
  0xd69859cd49ecb3c9U, 0xeac6c425dd29af12U, 0xda4cf91dd4c722c7U, 0xf6072ab73610ac31U,
  0xb84c3dc9d23cca3cU, 0x182e4ca5122c443bU, 0x31f3232f020035cfU, 0x46ebd041ad1ba6e9U,
  0xbfdb2501bc5cdb37U, 0x2341f33e47bdfb55U, 0xe604e2c40d400e05U, 0xc8fa2bfb46a8665fU,
  0x36fa13a2f8c3f4a5U, 0xd4a11f9d4e44be5U, 0xb3c551a70757220aU, 0x26f3f3c0b9e2c801U,
  0xd53f3b4e811eaaaU, 0x36da33d822b31505U, 0x4cacfbe36018a817U, 0xd63123df23f5f659U,
  0xf7a30635edb2ecabU, 0x10d6c8f740c5cf28U, 0xd519c82f06d5e8f9U, 0xb4e749dbf70d5f50U,
  0xfa4aa41fb8a7521bU, 0xee193da3b6c7e2dfU, 0xd8275a33b6eda7a7U, 0xbce3315462c7192cU,
  0xba35adbcbac32ca8U, 0xe5182ff5b751ba32U, 0xdd3331eeebba222fU, 0x60ab3b2c5fc9b032U,
  0x5127b8d25cccc5a1U, 0x4a95aa151a94ac0U, 0x2215180b1add03f1U, 0x5c2309342cf947beU,
  0x5844b5e215bd03d7U, 0x19f71be3bfc1ddc1U, 0xc2fc17be185aeef6U, 0x5fdcda2b93b0f03U,
  0xb9e031b0bf03b2b1U, 0x4345c8e54d3abebbU, 0x5c3bc7c732c92a19U, 0x3bd2c702c824a34bU,
  0x11ebec355617c604U, 0x40afb5265eb6ec08U, 0x144ecbf57c91e158U, 0x678dd52db4b1f52eU,
  0xe0095300e2ea721eU, 0xdadc3e790fb2f376U, 0xf387451199d2c297U, 0xa0682acde14b98ecU,
  0xcd55bf5b13369d01U, 0x655d6e8caeaa2fc7U, 0x5a6f913f618c8905U, 0x37127c254e503e6bU,
  0xa3b48705ad3cccc9U, 0x64b92f664624c144U, 0xc7ffdb5d869a72b0U, 0x1bba7644a31ecb28U,
  0xb0721bcb9da055e4U, 0x8ac1028698bb2ee5U, 0xdebe4abe671c5aa4U, 0x2d4fb3e80ce1aa0aU,
  0xb497aba0a362785bU, 0x27083a2f4b92f859U, 0xdb3132270c1d141fU, 0xdefc9397f35a67d4U,
  0x26bcb8fd1fae1167U, 0x1d42c0cdbf1a3341U, 0x9c46c2f649e462ddU, 0xaa2c01349edd501eU,
  0x2b0a018a91b84be3U, 0xc96ae98aecd7902fU, 0x2a04e608f2533c64U, 0x31860c39b2ba5eb5U,
  0x49f6d9b44ecf4732U, 0x84bc40d04067db3U, 0xf42c23b05fc7792cU, 0xf1d92ded274ba60aU,
  0x8fd4705c81b5ab99U, 0xcca841cd738eb843U, 0x954016f3bff8b2b8U, 0x6418e3c197849f12U,
  0xf59fdc26c3e108fU, 0x6ad9b73240f1ca2U, 0x129490cf02fdd39fU, 0xda44dc6b9bd69a9fU,
  0xb024d0fb9bda3519U, 0xe7d95b679d91eac1U, 0x98861d4a4c9d5d4U, 0xbcbe1d99f6f9acfeU,
  0x88686507ba384031U, 0xf94f652e3a74332fU, 0xe1cc85e578dc251bU, 0x1f78a02da7fbea5aU,
  0x480aa05f7009a81dU, 0xf00a98918156b193U, 0x6a3e005b3c89f2ceU, 0x3605d7d2c96616d8U,
  0x2afea6879c367838U, 0x47da9c194f979fb3U, 0x398b12644df233beU, 0x9bba676f6b73de4dU,
  0x9e43582135103941U, 0xdf02a7752d9e408cU, 0xf11df88914ff0044U, 0xac4342caf119a570U,
  0xa62a88cd10f294c9U, 0x3e91d625cf676ec1U, 0xf4bc203b3f5cd12cU, 0x2ffee42c3da1905eU,
  0x620103990c638baU, 0xf58bf61b35201463U, 0xb858618ef6f7fabfU, 0x8f59426f91159044U,
  0x79b1af23f24f4aceU, 0x15aee9f107fe6defU, 0x89bb4387a29449bcU, 0x5201aae6f164d7ebU,
  0xdce625aa1fd3d689U, 0x4c6baff3f5093368U, 0x432a66ea132819b9U, 0x9623620954666345U,
  0xa3ee595740dec81bU, 0xd53eb9ea5e95a85eU, 0x53979f0bb7fb87b7U, 0xf9f5e24a995fed4dU,
  0xcce2ccc120bfb403U, 0x20e2e77f55224f78U, 0x246d9a736afec21fU, 0xc8f90db5b7cab8b6U,
  0x6fa00e65e1cd734dU, 0x6e0ed9a845aedaabU, 0xb1e3a7a1499afe59U, 0x619503eb36affbedU,
  0xc4bc7218d473cda7U, 0x5ff1431fdf263059U, 0x1593ac872a0510feU, 0xcbeef43362170224U,
  0x1eb0778c47abdd96U, 0xca60dba5cecd34c1U, 0x92a7104614241041U, 0x9f5e2adfd718e60U,
  0xf94fe7b0f8a0e7d4U, 0xf7f410199bfbfa3dU, 0x33c00c9fb7a066e5U, 0xd75c2cf3d5cd020cU,
  0x9dcac5472905e2d8U, 0x9b571c483479f9d4U, 0xf5d95bb1a95973efU, 0xb83d0e1acc9ad3bbU,
  0xb104dd011c15f122U, 0x68fdb23ed24e8fcbU, 0x41008ffc844c3060U, 0x383ba898966b17a2U,
  0xb101a96f4cf19773U, 0x3c4b25f3d8ad22b4U, 0xdaefd514bc5b612eU, 0x3fed244e10336001U,
  0x9aa73eb5663899c2U, 0x39ebe1f6b1c55466U, 0x714734c75c6d5bffU, 0x5f1590a8210ca2bcU,
  0x33ceab910cf0a04eU, 0x3962e556a2fc01b2U, 0x4aab54fbd4c3669dU, 0xd6bd942dfafc1b3fU,
  0xbcc6a32342270ab8U, 0x901562c2f73564a8U, 0xa30cacf6e6452b33U, 0xf65462ea2a9c47dcU,
  0x3cd3b6463e9799e2U, 0x4520b9944fa46207U, 0x1cb78ec22549a73eU, 0xa60222e5c41bf940U,
  0xad8a49ea41abce73U, 0x10b07c4328427600U, 0x272e762b10ed13d4U, 0x3bb0a59a123d632dU,
  0xe6636f05a1fa8c8fU, 0xf4e9010c5628ced1U, 0x193a87dd7f157598U, 0xd598ea4e5356d28bU,
  0x5c50dc5616a893a9U, 0x6fdff05c46bb292U, 0x74bdb91cdcf24f50U, 0xf8c6a6b36af09d06U,
  0x1b1cdf1e5c3c3961U, 0xb4de004f5c5155b1U, 0x932a62a3c08601deU, 0xdcafa20392f9cfeaU,
  0xe2dddba4494a1892U, 0x84233245829b1352U, 0x4824e26baa37507cU, 0x5ba6c17c60cc6861U,
  0x7d46c70246dcb162U, 0x213696ee0aa4b4e1U, 0x53a19f94bff263faU, 0xf19fc18c312e64b3U,
  0xfff2921e508b0d1dU, 0xf351a96ed33ea343U, 0x83c29f8ae4a897bbU, 0x38cff22c18a398caU,
  0x1b2497bb9be60b26U, 0x638b1d9345549c31U, 0x3a72cc49c2dc28fdU, 0x3f2d0af7dc3e0b97U,
  0x39cec78bd11a747fU, 0x5cc9af9e9335a565U, 0xe28c605efadb379aU, 0x4c39f37cadd7d1e6U,
  0x5b72f945a10855e1U, 0x9972eb7298aee71cU, 0xafa8f8fee601f748U, 0xcd153c3b568b5f26U,
  0x8ea6b4fcb0fe073cU, 0x3707bb6288d5c1c1U, 0x408d47c06a043dd3U, 0x2e34f28dffa3c792U,
  0x33184a00c75fddb2U, 0xd4afa927ec75557fU, 0x6ea1184f59221220U, 0x1a8c5d504dc737c2U,
  0x3774e7ac40e6293dU, 0xd711074976a4085U, 0x3e5e2fd440a3b8b5U, 0x30c95e5c8e89bdcaU,
  0x3223760b4f0ec3a3U, 0xfaa28afdee616013U, 0xf2a11c033cff88c2U, 0x96cc3b1e76596552U,
  0xe7778a7557c3f1eeU, 0x88a94b6eb4b8942U, 0x700b3bbb71045a75U, 0xa8c4e46bc44260c5U,
  0x5a0b05176ca99a76U, 0x672add88dd494d8cU, 0x91f59fa6d0520967U, 0xdf7d22dafba7ed19U,
  0x356663941d3f4fafU, 0x59978b736b91689bU, 0x6d59d0279cbc54e3U, 0x230d70bb91cdcde7U,
  0xbe540989dc076700U, 0x5034284c1a58f601U, 0xd48c1299c217b6a7U, 0xc0cc364b8f0d5c14U,
  0xf3dfd7ded016f626U, 0xbab1e53a90a3180eU, 0x9c7d75ee8bf07d5U, 0x8f57301aab5f98a5U,
  0xeb8a59065558ea96U, 0xcdc5964eab9deb19U, 0xb5c225fc34671f51U, 0x53dbb216b593e59eU,
  0xfdf74b357bbaba77U, 0x512c13ad2833cd2fU, 0xead2210cb6652063U, 0x4ee35b8d870108f7U,
  0xb5a21dff4600b4ecU, 0xc2f9f9e933d73764U, 0x6b1f38f8f06b7e19U, 0x5334993fa119255aU,
  0xc734996d38a2e8d8U, 0x3075d48dc2c14793U, 0xe11a92659bc5ee58U, 0x5a4021617770c6baU,
  0x9b4e094a8d9b03dcU, 0x6c9149d7e869294eU, 0xf1fd57ea73df322aU, 0x49991ae276e0fc66U,
  0x8701973ddd36dbecU, 0x1d3d2e1002d9303dU, 0xddaf73fd2ebc5d51U, 0xbcb858f0a1760439U,
  0x24cb179016df7fc0U, 0xa929e3fe79fb4a21U, 0x5b17c68664cb8d67U, 0x3970b6f917980775U,
  0x8afba84b4045a61eU, 0xea01eca499c03eebU, 0xf6c6b4576445fe2aU, 0x9ea771adcc53e327U,
  0x2ecee738f411d364U, 0xf733c61a735100feU, 0x476e4fa6dc55edb8U, 0xb6f5551fda6fe8baU,
  0x5f20c21dcbd6322fU, 0xbefbb663b96ca140U, 0x3353fbca6eb3b7a1U, 0x2d5a9eb8bc562053U,
  0x71c99c1a06201d62U, 0x8da63a5c1c60beadU, 0xe446c8c389f05031U, 0x49d8f16eb83d613U,
  0x693fed2ee498eeddU, 0xc21b63a7e1978667U, 0xd8c3ba6dffa62a19U, 0x752f3bea5ff74de3U,
  0x2462224f625150baU, 0x45bbead3f06d72a1U, 0x515a0af74de4e62bU, 0xd8faaab52fed1820U,
  0xe2cff495d64b8cefU, 0x95d01b4545afb367U, 0xbdee99159ef16a12U, 0x1baf0950d704c46U,
  0x3dff98ed483128ebU, 0xff39e5ef32603095U, 0x9b6b9f2f57b19a36U, 0x5d38da6dac3c6effU,
  0xf9b40fd58a914da8U, 0x9d177d9b2dee3f2fU, 0xad098ec20a3eb79cU, 0xcd286458e0e1d2f6U,
  0x38f8b1ecfb918cfaU, 0xda580dd66a6995dfU, 0xeb49cbd7c71da9beU, 0x1df25029b612c75fU,
  0x6223b79c25af9f82U, 0x195bca9dde18e9d7U, 0xbdf4f9e60b6f3ed3U, 0xafcf300444f19d4fU,
  0x48112fa417b559bdU, 0x2fba0c28622e649cU, 0xe6fa4becc35fbf0fU, 0xce4bbcb7bbc881e1U,
  0xd2c6fc9dab3cab64U, 0x2bed4c2a47d92876U, 0x6d5f4140bb23dcdaU, 0x122ce3ddc7cc26d3U,
  0x393c55c03416031U, 0x9d4d61c0235d9fa7U, 0xcd573b633c0dea38U, 0xbedeb41d57302e72U,
  0xd98c9216da168dd5U, 0xcf396db5fafe770cU, 0x41b9cee35fece270U, 0x2d10a7226b5735fcU,
  0x2663a6ae3b88553fU, 0x689fe1cbb8e1a09bU, 0x66de882e73442e05U, 0x33c6e342bce11816U,
  0x85d570ec58fa474U, 0x451ca40166ef6a65U, 0x44c1ac36c259e5f2U, 0x23fc59d7a5bbaf26U,
  0xe4b511e8beac49a4U, 0x4decb6c1540ae8faU, 0x4ffb46374f5112d4U, 0x144fc8d9f533a7b4U,
  0xfaca0dba4b94b03aU, 0x11bf13d0dd57f807U, 0x5b3e6e0bfe5bab5U, 0x5350c33da215f109U,
  0x10b637425ade3509U, 0xcc2331e6f010ac29U, 0x19d0a9d1feb4e14cU, 0x43f0dc091eb90dd7U,
  0xe1ff1cdcaebd46ddU, 0x1ae35239255a1637U, 0x5462cdd8362b0c16U, 0xe3d371d3ce4dc0cfU,
  0x5dc756bc9638c1b0U, 0xe4fbb82e52d5bd2dU, 0x11f4553e27540beeU, 0x3ded372f39ce1b0bU,
  0x39d0f631bfdfa8d9U, 0xf5c82edf2fa24520U, 0x2ee74c0b97e03b5aU, 0xb0e7ad54e55c24eeU,
  0xf4e91fce261b0c06U, 0xe3d336595dfccb2cU, 0xe01ee40f4531dc15U, 0x542db10b4f0be4f1U,
  0x152ef453e1c6d420U, 0x30f80f29facec549U, 0xbd195ba251211425U, 0x3f0d5c3b41d19db5U,
  0x41105215064c9c55U, 0x44f9b8d0394bb23aU, 0xed4e2730b0c595b0U, 0xbad0b69e9bdb01caU,
  0x1c0d93e721313b0aU, 0xbe130e5b64c1ac12U, 0x4f434abe15fd4641U, 0xcaf9e4956b97db60U,
  0xfdcec14a33edb258U, 0x19f564d5fe0f1731U, 0x4260df3c62c5574fU, 0xbdc6df5549d4255dU,
  0x3a230433b5bba9cdU, 0xf9030a300d5ba6c5U, 0x7cf499d4ea31b42U, 0x29bf9a1df5f25b4bU,
  0x2d2bd7aa514cf0b1U, 0x5f13c6566c6418ceU, 0x54ca4ad029b31f5bU, 0x6077ff5c0fa1831U,
  0x25c0a5e4f2c7ade4U, 0xf32fd054ba0547cdU, 0x20c99c2027f2c4e8U, 0x57353aa844e5b916U,
  0x56b13e47eb42e3U, 0xe4cdcc41ee12f154U, 0x1f5073e47fb970a4U, 0x98539e51e54ee392U,
  0x9e1ed0f3296dd6d8U, 0x4f2429d0f6e9f73fU, 0xc8b3b1a80dfe8cfcU, 0xfa3540eccec9d1afU,
  0xb45a1232d254d3bcU, 0xa55500f1baaccaeU, 0xfeaab7f45d012c9dU, 0xddf324622cfac1faU,
  0x99ab57c118da1ddaU, 0x50e93f50f139bce6U, 0x3fc825febc0aca4dU, 0x3ea1c5c7d8555007U,
  0xb3af15003cbd9718U, 0xeb1a3cc122c4f102U, 0x27280a361919af25U, 0xeb310c3658a519a9U,
  0xe9ef01e9affe5bf1U, 0x3c04f36347c95310U, 0xa09c3d9e0ac32341U, 0xebb335e0c554c2c8U,
  0x17d4e7c2984af02aU, 0xb9ca29d199550c60U, 0xd7e8293cd097551fU, 0xedcac6dda2494cd2U,
  0x14a415d708bd3cbeU, 0x4bc0ff3feee3c279U, 0x44aa5dd2949b9e34U, 0x2762affa5efd389dU,
  0x160edbd0de5b34beU, 0x67490f4fb9e9c14bU, 0xac1662b34ae6c3c4U, 0x5e9d17e6172c01baU,
  0x2fabb34c22e5d1a3U, 0xd6b226dcc064bfd1U, 0x31e4f314c4df6a0bU, 0xd658aebedd4c50d8U,
  0xff8eff0634b5e926U, 0xe655c1d34db04facU, 0x1902541e383da8d9U, 0x9a2fde5828cfdbdaU,
  0xaae27a6fa00041aU, 0xcee1f6580bd8d2b0U, 0x3be265ca59eadcd3U, 0xe7c229f535a6c7c6U,
  0x26beb72343cca5c6U, 0xa95d15a13200d826U, 0x97131dc7f5a6f40fU, 0xeea307bb310ef235U,
  0xcf5df963477023caU, 0x6352a20f3335240U, 0x101da5d5f0ead43fU, 0x53bab712941abc3U,
  0x2967be4696f04fa5U, 0x1703dcda4930adc4U, 0x2c39ee1944b76253U, 0xf21e170a61b9535fU,
  0xb709e5a21dbb5852U, 0xa20214151d1cf0bfU, 0x5d66099af5c71dcU, 0xd8b4aef04543fe6eU,
  0xa77ff942490840b2U, 0x3af2da5bf4bc21baU, 0xcc6d10bf6b504f4eU, 0xbb6e19ebbfcb11a3U,
  0x609ed01ea5e6f617U, 0x233f9dc3576b6bbfU, 0xb315e19633deb18dU, 0x17e8ad1aa4264e54U,
  0x3119217573effe68U, 0xf12cccfa9dd74060U, 0xdf9cde0b7f1b143U, 0x4dd963925a576d0cU,
  0x2a51fa4b5bdae648U, 0xf54351e50557be3cU, 0x300850f4d4cefc9aU, 0xa299f9910193b241U,
  0x4f43212f565f24f2U, 0x7413db9ac408bf9fU, 0x5ea899b4db3f5225U, 0xe6b8ac3fd4c3f2d0U,
  0x6f181459f5080fe0U, 0xfaf7266893e57408U, 0x1fe54a4d0dcc53f0U, 0x20dded8810e4cfc4U,
  0x839169955f925d38U, 0xd23ed2f5b1d939b8U, 0x1008b9c430b8dc23U, 0xb86d383c08916421U,
  0xd210bb5843d9baabU, 0xf20f6ac828d9ed30U, 0xe5ad0d95742b5894U, 0x45184a8ff44aa968U,
  0x1d414ebbce6cbb6aU, 0x91a86421595a9baeU, 0xa319183c546c1e3aU, 0x7bdc341f6617028U,
  0x91d3ac73032b5a4U, 0x2af598cc58d8a7b5U, 0x66f6e1193e42df28U, 0x67f8f406be41d4bbU,
  0x45f69c90de399640U, 0x1cbaf8d32935cb0eU, 0xe058199649a6fa6dU, 0x1ba72ad8706043aaU,
  0xea6a4225395329e6U, 0xb6f2e6afd2195fb8U, 0x9897fe314bd93e13U, 0x8a61444094f9b4ecU,
  0x14952c664b73640fU, 0xe73c5e542e3cee22U, 0x85ba1901290fbc1dU, 0xb3c98b93f7ddc31bU,
  0x2153cb2e28e3aef5U, 0xcb1c18d52bbeaebfU, 0x5337fa0a98d3f5afU, 0x51ce3f2914f736aeU,
  0x6425f263e6a58b4fU, 0x18216b0d2864ae9eU, 0xfc45cd90d803c876U, 0xdb55c05d10346376U,
  0x118e413b28ff2bfdU, 0x4feab78f13e1c0c5U, 0xafcf5cc264b7d2afU, 0xd7bf3a460619e8b3U,
  0xb7bfbdb343650ed8U, 0xc2dae83bc7222fc0U, 0xc8331edc4525c351U, 0xd44396e0de3022b5U,
  0xcec4e3b4f4eee5c5U, 0x2abe2fbb3f34cae0U, 0x13591934f4ba0666U, 0x45e30d00fe335b31U,
  0x980b765ce00e2992U, 0x3297ab4483fec4eeU, 0xeca241d33d239bc5U, 0xa7520dcf675c104fU,
  0x454b63b7d95aff08U, 0x6549be5a12b9a8b3U, 0x2be0f06ce84d0c2fU, 0x53d6cbdbc0a74705U,
  0x9302fdfaa53cc52bU, 0x55d05c28eae6cadaU, 0x9295f23131dac55aU, 0xc553e25f4d5b09b8U,
  0x9d6c67d90438c84aU, 0x3044ea410552f4e0U, 0x93aac3b5989ce22U, 0xb95f12f8d168dd06U,
  0x265cacb162d6d83bU, 0xa12efd03e7061d5dU, 0x9433b8fb5bfec5fbU, 0x2add0d9f0d19e0faU,
  0x3dfabbbb49ef596fU, 0x2e24b7f5124be903U, 0xfaa4bc0e31348dbU, 0xc94f3130c5e93a1cU,
  0x50f61c222ee1e94dU, 0xf6c0620e28ea28d7U, 0x2c864f2c947ecb9U, 0xe12dfd9d6966dc0cU,
  0x2e9396e0d6da0330U, 0x76e6c32def5ee04U, 0x43ea7273c755cf27U, 0x8f5d3914e464e4d2U,
  0x4d959970056eb4eaU, 0x1100b803992f2ceeU, 0xd173f99e851ebf8U, 0x21a6e831a9014fc7U,
  0x5662ebe85cad55b1U, 0x7fc3392350ca6511U, 0xa6d7041935a4b2e3U, 0xe5120fb8552faf39U,
  0x40e699e7d5e23f59U, 0xcc972fa9f35e42bcU, 0xf2043b11f53744faU, 0xbbcff15316f1f4b5U,
  0x2da5e211711b25fcU, 0x4db606225b14f3f2U, 0x5b27f569f99a2343U, 0xd809fa67da5ca566U,
  0xc9698f59102e5c83U, 0x5d4a6f4484eddac0U, 0xfef0fcbb4c2e6892U, 0x76b5b53258976bc7U,
  0x33eba77888cadc2fU, 0x6e4d5fd1b8d3bea7U, 0x10884ca8f961881bU, 0xe3e18aad1700debeU,
  0x8c529fd0bc68ae73U, 0x5fd6e4d407f25321U, 0xa7e7bc9e1854e199U, 0xbbcfeef6fc707808U,
  0x1791159e24b61c32U, 0xa0ee6c00436daf58U, 0x6596cbf8fdf7f0d9U, 0x5829e8d8c105769dU,
  0x4c696409b8cc755aU, 0x50139f720cff181bU, 0x6665a00d1e7a1d8fU, 0x1c8ba7c0dcc1ae4bU,
  0x9fef0eba683537e4U, 0x3e3437ed4699708fU, 0x3bc2df0ec0e9bd0U, 0x8c53c1de4e1734acU,
  0x6eba1edd88223b45U, 0x6a01fdcfd50fafe4U, 0xb9823307043fc56fU, 0xe83872035b0e01e0U,
  0x4a596b1fa80073e5U, 0x4a5c6b5b89f5d4d7U, 0x8a51518a11e68fU, 0xc657f9f7d9110c36U,
  0xfb54e6e654e4aa36U, 0xa87c9a678b8b3827U, 0xec2afc107adf7743U, 0x443514e0184e2225U,
  0xe381252696f7698cU, 0xd30aafdd5b1ab8ecU, 0xfcc5f34231c40559U, 0xfeca2f702baaabf7U,
  0xf099d2d6176cfc1U, 0x41fd3f84dcd7917U, 0x1068ebd5a9b56035U, 0xcf0845308e098566U,
  0xc6b2734e552969c2U, 0x9d996eb7d777f205U, 0xdcbdade0cd26ad1U, 0x6cd7d199cae684d7U,
  0x9bbbaf84ac2a544aU, 0xdc52be0943eedc30U, 0x271d645a7229e574U, 0x3107979f27186b8aU,
  0x2170ecd3e656f85cU, 0x179127f8b751f58fU, 0xf4db539e8d71e2f0U, 0xc6f1f8f4d1364208U,
  0x9ad1dba949cec2caU, 0xbcbfb28df139e99eU, 0x64ae55c385d83a63U, 0xebaee3bc51bce7d2U,
  0xcbf14edd3acb9bfbU, 0x372ac454f65cb704U, 0x34cf039a5b7113c1U, 0x19a2b838e9012edfU,
  0x33f59db6211368dcU, 0x1f01b0f2ace9adcdU, 0x881214016c6ec2f4U, 0xffd496396161ab32U,
  0x1b8fde04046466efU, 0xc35e8efd483dc9cdU, 0xbd70e72007102124U, 0xf904c8770fcf84c2U,
  0xe2bdc489511d4f81U, 0xdb95be55ef59ae39U, 0x25d208c8ffca92d8U, 0xf44a109128c57850U,
  0xb3d13c8fbb53aba4U, 0xbfd7fd760f9ccbe1U, 0xe373b039615075bcU, 0x3121f0f143119a2fU,
  0x15ff66e25f95c440U, 0x3407dbb0332f41a6U, 0xb0fd5247dc3c3456U, 0xc8f7efbcd5ea3c69U,
  0x20ac32bf75909cbcU, 0x61b3e41852e8b105U, 0xcd32c5fd5d6504ddU, 0x9032190b92232615U,
  0xf453084217acfaafU, 0xf9af4ac7d1ff4bc9U, 0xb1bf4533b22eb16eU, 0x9d706807c2e956U,
  0x73f55901c689453bU, 0xb3236cc6e58e0f53U, 0x448d4185d16fd5ccU, 0xa09c8741ab123cdbU,
  0xa594101dded6b333U, 0x8da5d829d2310ed9U, 0xf5d2b0e955b8eadbU, 0x3e3d984646e275feU,
  0x9013f6c4d2f67cc2U, 0x1fc05113514507a1U, 0xfb2ca9bbb7c614a7U, 0x8630bf58fb3a4355U,
  0x4b6522290cd1ff3dU, 0x78b2081daf4e1b13U, 0x8a2267ee19daea87U, 0xcbfc619adb0acd68U,
  0x5d89b0aeb429cd0aU, 0xc02884b6539d1b2bU, 0xfddeac3cf2cd86d6U, 0x4a7e031257640e9U,
  0x47d3ded86e2141e1U, 0xe9e4dfe95b49c2f8U, 0xe4bb65c78f153dddU, 0xee388bd1b9629cfbU,
  0xc0b5f327f86e9c37U, 0x41a128610aed3c1fU, 0x96780315b92c8789U, 0x554c6a0467dec72dU,
  0x5c927ce041d9e305U, 0x114f4d05aaf0b884U, 0x57017a9e6e5eba9U, 0x21039bb9badea73aU,
  0xcb17e8c56a1565b8U, 0x769417ffecec35c5U, 0x8abfc5d7664faffcU, 0xd120a8b9595e2d34U,
  0xc4c9bbcabf32f1f1U, 0xade0f4aff01d9d06U, 0xe29bcbee9893d4d4U, 0x97d6fb2cb7e7d2a8U,
  0x46dd08959b79e6b8U, 0x3c48c819d7ce613bU, 0x503760cd56b9daaeU, 0x1204d3f3c3272771U,
  0x1583155a52495cfU, 0x203e29975fc6d9U, 0xe5a9620749617395U, 0x8430401347fceb1dU,
  0x9dbd0740f1bbb341U, 0xffc6e51a8b270726U, 0xb6bff75ece7d3333U, 0xb5f0c1e56356760cU,
  0xfa99fc92e7af87f5U, 0x2edcb0e6caa64d1dU, 0x5362d42e9ad8da90U, 0xca5b9c939f1f8ad1U,
  0xcfb8a9e258dd1f1U, 0x1facc2bf7171a8adU, 0x7a1eb0ed22354398U, 0x55ccd05e58231423U,
  0xdc6e76c90edd8ef5U, 0x55cb13a7d797b6c7U, 0xef2268d5c9b50a6cU, 0xc00ca06eba2922b9U,
  0x76236067c4fccfcdU, 0xff2ef515509a493eU, 0xf7a86f44329f4f4dU, 0x15be08bd5517092bU,
  0x81a662665f0c161dU, 0x3588a5d70d99d86aU, 0x9ceca4b14544cde5U, 0x29b33274a68ca9e9U,
  0x8efe616368a3a244U, 0x1e56d98fe7c10b2U, 0x7fde57e275df0dcbU, 0xabd8dcaa1e43c38dU,
  0xa158f13d072284bU, 0xc1753acd0680de8U, 0xeb956a29d612e863U, 0xcaa29f2bb7a7b79aU,
  0xd2af1b78d4916728U, 0xfd58834e252fabc5U, 0x23d41fc7628bf0f3U, 0x179c59af41760bb4U,
  0x73dd73934db4d6fbU, 0x15362c2d346e75e3U, 0xac4d51dd4d940ff9U, 0xe9a41d6efd9e67a7U,
  0xa16bb4f516861b60U, 0x4106ba4e299453cdU, 0x1dbdd824e7022d1fU, 0x37576821e3433e0eU,
  0x5102716919702b60U, 0x9fe7a0e0f67fc464U, 0x6710d1accf2755c9U, 0x7a3903d447aa14d2U,
  0xc4584efca6c5c12bU, 0x6feaff353ec1c0d6U, 0xf090973be96fe8d9U, 0xe95e3abe6bfacc45U,
  0x370e2bb29895c4abU, 0xb413595554403b38U, 0x41856b9c523d8e86U, 0x39e6d28722270f55U,
  0xe0871e09c21dcc9U, 0x3da0b2073d764cc9U, 0x2ab2fe1cb0306150U, 0x1113a53aadba6567U,
  0xd9519bb4cb98a9bcU, 0x3861f06b0b7106d3U, 0x97eec76a47d3e0ddU, 0x900688484f6636a4U,
  0x20a1941924d6db4eU, 0x93c59790eb56a960U, 0x12dfabdbc3b71ff1U, 0x8ccb74233b6d3d1cU,
  0x2ffb49c01043ad44U, 0xbb59feae54f5f1caU, 0x6fb8ae06225000a0U, 0xe7b51491e83157e3U,
  0xd3e850dacc934b4cU, 0xebd36c3b34b712b8U, 0xba0a7cc2ff16a8acU, 0x11356b15051d600fU,
  0x5ca3a2dfe8e6faf1U, 0x561f21b75529505U, 0x2149ba02d1d984c0U, 0x6078163e788b7dd6U,
  0x8af8dff6a0c3aabeU, 0x3b4d85c1715e697dU, 0x457a8bf9d6b3b907U, 0x2321e0f688f1b20bU,
  0x64fd05448a2e1aafU, 0xb0ce8e9962dcfa44U, 0x8ef00620f3417799U, 0x8c5c77ff3f75bcd0U,
  0xccf4059aec02b6cdU, 0xb703d6bcffa3cf55U, 0xe78a9bd79e0a02e5U, 0x44b849466e75edd9U,
  0x65e1eb3610718f20U, 0xf9a6e25bfb7e6dd1U, 0x4e4b79258717fe33U, 0x4c71dd686dc6416fU,
  0xb4569ff6b4893270U, 0xf6a0e412c8a9848cU, 0xbcfaf5d0e919d523U, 0xf92e9f501ffea5dfU,
  0x4c3423fe05bc94beU, 0x2d6153b13d4405b1U, 0xd71fea50d79515cdU, 0x6b1d6dadb642c35U,
  0x8bc2664ee4ea2714U, 0x5c06b5e84d9ffd58U, 0x3555c2c141333e8U, 0x159d57f700be1125U,
  0xfddbd4f2940daa98U, 0x3b3bd1bb41bbcd9fU, 0x5722f0be51ce0451U, 0xcb01a01cbe9eb72eU,
  0x65fe25593ad92552U, 0x52064bebdc981b42U, 0xbe2e08cb56fc2360U, 0xd45ef5b5e8b53f9U,
  0xa250045f72e603d0U, 0xd9a610ea35e00f55U, 0x10ac2b07933c0c2aU, 0x21320cf0001161beU,
  0xacfa5bb350d220cdU, 0x441a5b0437c99fd5U, 0xf95d065db10c4828U, 0x6915092e9f61ab24U,
  0x29b2f13fe4230b61U, 0xb3c441dbba585e17U, 0xd8fa8f368d0ceecU, 0x4c13d42a2bedd332U,
  0xd31c5fef6f1b53baU, 0xe721be41c524d693U, 0x523946045d313ae4U, 0x3ac878b7c354eb9bU,
  0x5913d3cddcb6429dU, 0xeb9557303644a25bU, 0xfe47aabab75112c6U, 0x16c6b664a89c0daaU,
  0xa3dad75dddcdb94eU, 0x354218a520d0b0c4U, 0xe4b02a0b524198f9U, 0xab3b2a3661a040c3U,
  0x19e93a0820e54e11U, 0x80f192202d7592dU, 0x424ed94cb3f93117U, 0x6d12cbd7d2327fe6U,
  0x460d5d0a9f28e7a9U, 0xdfb1d2b327420833U, 0xe437c4464241cfdeU, 0x6ab8c6e22ecdf1f9U,
  0xed0afe5e5a00c859U, 0x58e4bae6c5cce534U, 0x3916b7e7f8845343U, 0x55a5fa624ce60e8eU,
  0xcddeabcff086e406U, 0xeb41b94538d2a4b4U, 0xd2fe45e650b31b35U, 0xc7106d1f0153f1dfU,
  0x5692b334f7cac800U, 0xa4dc562347993c20U, 0x64d61eebe9c35ff5U, 0x11c330b13247cbaeU,
  0x42413204073db932U, 0xcecdb0c92de22c35U, 0x3cc61554eb5a94aaU, 0x4bc626d233045fe6U,
  0x4979aead1efbc735U, 0x2d081aade5e25607U, 0xade0cc3fc8a2e555U, 0xbe2310decacc2a34U,
  0xd60d21fe190e041dU, 0xe0d7df096ca52b62U, 0x32efc74b1f24b78cU, 0xdbc86803e302c910U,
  0x9ec8a753b8371c22U, 0x19300e2106feff51U, 0x3ddc1403453140c1U, 0x49e304ed589ee9fbU,
  0xb613a3d90eee2e65U, 0xa4d42a12d3427f4aU, 0x1de1d737ce43faa9U, 0x457325fb25c1c8a5U,
  0xf12e40cb30e2c9c3U, 0xe80f061eabf9dfc2U, 0xf0d64e0f27e29432U, 0xc32d1327ae29dba1U,
  0x2c0bf84b48b3ec23U, 0x1923bdd6fd1b9914U, 0xb6c2c34652435d45U, 0xf6f63e0cb75b2425U,
  0x4e74b2f22f210759U, 0xea42bbc7cdbef2feU, 0xefafed421a0f41a7U, 0xacfc3a409613eecaU,
  0xabadb4582225aaffU, 0x5ec627a9c63e220bU, 0x11e62b8fef54b52cU, 0x49441860e3a0e1abU,
  0x3b3fd00e6c494a37U, 0xb4f01e2ff824ab08U, 0x27a8427f3e26a257U, 0xe7cf3af21cb15c2dU,
  0xc9a91a47ed1e3b2fU, 0xa722aaaab69917bcU, 0x10c7f7c8c245ddbbU, 0xdd34ba32f5d41127U,
  0xbc6648a8dc1f6723U, 0xde08d905b8154bd0U, 0xef264a255bba0d08U, 0xbc4b0caff310deb8U,
  0xda3a24286850bbdeU, 0x13d95d42d2e2bde5U, 0xdeb15525c3c3b634U, 0x79d7e93b6203cb44U,
  0xe81fbca42b2e41b2U, 0x43e63093e41ee83cU, 0xf3cef41d04ab09a2U, 0x5937d8ebf8259da9U,
  0xd3bf1800f5f947b7U, 0xd5d0cf56273125b4U, 0xf7703f0d193eba5U, 0x44305c64f1e8b740U,
  0x22dd61ad8137434eU, 0x74861c51a75903d1U, 0x5ff595c7f30ed28U, 0x6ecc649d4b6cc973U,
  0x77463f6754b914efU, 0x62215cbfe4354edU, 0x31d4eb9d150947b5U, 0xf1d806c43e53f50aU,
  0xcaee2427917aa32dU, 0x48e61d08e431cd29U, 0x285a31b2acbcf803U, 0x1af1d7ee8754f63dU,
  0x96a1d6602bdcb201U, 0x2cbd1c5a77cd393dU, 0xc026aa0e46e32e04U, 0xf467d6c7f85455ddU,
  0x54c51169524cbb9dU, 0xc0b22e3c6fc5c19U, 0x78aacd36a29f9d5cU, 0x2aed9c743e9ce164U,
  0x4bc302b769bdf559U, 0xa3f6ce39bd19487dU, 0x6d53c2008dc50298U, 0x8edc98b18d285e8aU,
  0x4294281d1e83dcc7U, 0xda23c5d6176ba411U, 0x70bb1ceff1175d0fU, 0x8874abd370cd34beU,
  0xd216171f92403858U, 0x96a51083ef7a629cU, 0xde76321a5e6d2ea1U, 0x432a299346a58417U,
  0x41f8e1ffcca455f7U, 0x5f361dfceac235b2U, 0xfdd044d8191de06fU, 0xb60eb2748504dc9dU,
  0x6cdd946c2de1911fU, 0xaf9c3f8e208ec897U, 0x13679df68c9190c8U, 0xa25b5680f0d0b67U,
  0x9eb9a4a31b381a9cU, 0x76c4dc53be695724U, 0x1947c941994e7217U, 0x6a47a1a746fca15aU,
  0x1a2054a5d8529230U, 0x30e07c3650c8a9f7U, 0x299426f6cbed4097U, 0xa335431bd4a04bb3U,
  0xe60cf7d3ae4638f3U, 0x27433f525b10894cU, 0xc0962bde02a0d2b4U, 0xaec83559d743f294U,
  0xe99157a869b3a3e9U, 0xaa4ee2111c9dd6a9U, 0xa0c7a9fa9b59e514U, 0xd228bcf194fa4468U,
  0x1dee745753d3273dU, 0x598a098d438b5bf8U, 0xc99fa7f6fffc37d3U, 0x31e0d53a55f4412dU,
  0x5aef3bfcd0b1ec06U, 0xa429f8e53a3f4fU, 0x3cd9f0d2502da61fU, 0xbab1d13b39c2ec10U,
  0x39be043adc3636eaU, 0xbd43054c1849bd76U, 0x431f24dc8bf1e15U, 0x321aa7eddc18fb26U,
  0x9b82eb2dfe0cf38U, 0x2b1ebf9a1b4df4b7U, 0xa597b43dd1ec1620U, 0x62bb72ec3f29d712U,
  0xe6bd103c21bdeaa3U, 0x9f7a8dfacee30d4U, 0x2dcc2526d002afcdU, 0xd9bf38b003c144a0U,
  0xb918ba2b20d5f057U, 0xd1d033b540e0d115U, 0x344ff60d3d03b2faU, 0x48b74d42cc11d09fU,
  0x1b396219ee64f0f9U, 0xf746dd4ba1ed974bU, 0x4b531a4cb02eb318U, 0xe894ae48a1b44835U,
  0x91e6a63daab9c33U, 0xf634b163e30cd95cU, 0x99eade10708b30cU, 0x221016c3063b0efdU,
  0xf203fc610a90a861U, 0x2fe6f9c329a1a6e7U, 0xafdaad27db45f64aU, 0xed070d408cf2f5dU,
  0x921349e22c7c3ac8U, 0x4ec62e06ed550df7U, 0xfdae7202b2c61c7U, 0xba2ff4e6fa241805U,
  0x690710fd2f43e2edU, 0xd82db1c324d5bbc8U, 0xe7c6ad1e81991699U, 0x4933c5e21049bc07U,
  0xb20148de10329cf2U, 0xef601954fe200020U, 0x4ee7f6a4be2f1af7U, 0xbadf3f17ee6b7901U,
  0x26c7c10ed9670b35U, 0xd92c49c9ed3562ddU, 0x5315ff49d5bdb7fcU, 0x29f04d7cc4db1b6U,
  0x4afcd37a8ff215bU, 0xae1ed6172b6a0ec1U, 0x2ae017ea5dae4e17U, 0xbe1dcfe91ebbd7e0U,
  0x71cdfcc2a26a99f6U, 0xcbcbd54ec233ce10U, 0x76834451361a1dbU, 0xb9555ab9e06792cbU,
  0xfbd9241c4ac34cf8U, 0x63f8a6665dc1bf58U, 0x9f20ccbb9b3dbad8U, 0xa00d3d5d9bb23ce5U,
  0x58bd9b0edec0be3U, 0x4ac1a99648fea7d0U, 0xbdbefc3a0ed7d035U, 0x98dd5446d7620acfU,
  0xa8165ee34f0c2031U, 0x68a8565f3af86307U, 0x8cd159b1cf1afa3cU, 0x2369c3e1fd0e833U,
  0x213bb764f7f0ced1U, 0xddbf5dd5149b6b53U, 0xf49818e6552bf697U, 0xa0e2ec1666ebf5adU,
  0x5a39350be2cb3e27U, 0x5ab62d89b6cd012U, 0x78fead7b39ce4a6U, 0x35ad64961a8c5ad1U,
  0x5441f7fc3e7f250aU, 0x1730d52408a9f63dU, 0xe9fd151dd64b9767U, 0xbcded096a49b4f63U,
  0xa09c8f98c3425596U, 0x59185d1602924a57U, 0x2c181dcd0c692971U, 0xa6b61212fd35502cU,
  0x494a5b5402cf31f9U, 0xb134f2003fa164ddU, 0x610943ddfdafe7f7U, 0x55d1bda720440259U,
  0xa6f8d3ec36d6672fU, 0x14532d4b5bfbe121U, 0xef9f6e5bd167b88eU, 0xccd158319a97d597U,
  0x1048ece41bfcd2a4U, 0x98d805464e9fd2d7U, 0x3df63319b84d59ceU, 0xc34a0a595cf5d7efU,
  0x38f79fe23a42ffa0U, 0x8fc109550ce844c6U, 0x5d6b6d0102d56bdU, 0xc4509b12056c733U,
  0x499c310166fda0f1U, 0xc122f514f5ce29eU, 0xc05df2c402c8373cU, 0x6305545a9f3febd9U,
  0xdb4b0c17de1b9db0U, 0xedceb856f31ba44dU, 0x42022fcc6423ee01U, 0xca2bddd4a948a7e5U,
  0x305cf963b6c2121eU, 0x5353d693f34d9d17U, 0x19b33ab2a21abf33U, 0x273436b35736e01cU,
  0x59f81ac54dacdcfeU, 0x81025b10fc12acaU, 0x67af2ee501af4a0fU, 0x9c393dba434e39ecU,
  0xc1df04b34fce4ce5U, 0xe69fa933d4441947U, 0x1dc5d4cbcffcddb3U, 0x9f09f2f4dead3cb9U,
  0x6a53663cfe51aea6U, 0x142bd1fdb312f7e6U, 0xd4a115e61da99d18U, 0x4f34b0e5cef0da1bU,
  0x1b1324bf3c1266aU, 0x67c90143ffe6b8a0U, 0x4ce14bec103df3bcU, 0x5129f62afe2d6859U,
  0x49d4f3f90113d679U, 0xbd324ad90bf96616U, 0xcbaf52cce4d50664U, 0xecbc66a53630c1cdU,
  0xdeda1f20e86a66b3U, 0xa5b6f1e896ec95c4U, 0x641f49f72f11b3e6U, 0x674919d6ddccd5c9U,
  0x6e23370edb5f30acU, 0x715d2937d3d1304cU, 0x96ab10632ee8d893U, 0x2e0c4a1dbc3ea502U,
  0xe00310c7ad5eb704U, 0x4a3fc8b1aba1f2deU, 0x601bd05f27e223a3U, 0x595e140ac1bc0330U,
  0x1c2643efc869db62U, 0x2f0934f5c8b1ffc8U, 0x1c54f2ec211fa4c2U, 0x38c5a1465a51b235U,
  0x20bac645bbf220f0U, 0xdb0956bb42da2effU, 0x565edab0453105eeU, 0xdc435f275c20b928U,
  0xc967df33f69b2723U, 0xd126954c3bd91da3U, 0xeeb53551646935U, 0xf1e7b85224514a2bU,
  0xe55cae9bc72c415fU, 0xf4ded42831b14fb2U, 0x37fe45fca4fc9226U, 0xa9e341577fb9b5caU,
  0x3a492c17e259e49cU, 0xda20f8eae0214809U, 0x15f6dfa3606327d7U, 0xea3701d5e3b7ed27U,
  0xd2e11d35cdd201b0U, 0x64423f44d32538baU, 0x2f95862555a25f5U, 0x2003450e3342ceaaU,
  0xa5f509f2ea390dbbU, 0xb211c8d70aefe7c6U, 0xf0d4f4820e191a1U, 0xaf56d9ffea19e3d0U,
  0x5400c35520deb559U, 0x59a2024d5c504a0cU, 0x111b28c809199947U, 0xfed4fd36ae08a742U,
  0xd6c810061162fbf5U, 0xc11b48149d4633fbU, 0xc101ca560afcb21U, 0xba46ae8b7a8e9dcU,
  0x54afa5d142c8d5d6U, 0x5b5ad527452a4552U, 0xd9ba2654bda562c5U, 0xcdb5f003b5c63a22U,
  0x423efe643d9c2d33U, 0xefc99a5be05e4aefU, 0xffab5e2fbef12aeU, 0xd0f338fd2f56e7e6U,
  0x21ef05485ef91421U, 0xae2a5265d2d4adb3U, 0xdbb31e354bc03e4eU, 0x1f2c1938a16de6b7U,
  0x37f49f5adbc9c72bU, 0xf82e42eacce8b4aaU, 0x9db436fe4a4e62aeU, 0x12ad061aa60aa1d6U,
  0x520e1d5d1dcae1dfU, 0xcce01026d91d2623U, 0xeed4ac2ed83cfed6U, 0x57b72631f19e42aaU,
  0x38f56189f4ede48U, 0xb89c2e32c746e853U, 0xb33aada0d33975cU, 0x2edabcd7dad0ead7U,
  0xf6acf152ae30b7bdU, 0x23abb740a13ba14fU, 0x505113bdf97f2f87U, 0x38629b40b8c90060U,
  0xb8ee50a6dcc4e0f4U, 0x16965bfaba11162eU, 0x33ea51b7eb59d729U, 0x24ae071fc3bae719U,
  0x425c0c174ab5fcaaU, 0x1259cfbbab9add4fU, 0x36f51a4fe3c546d7U, 0xd915fcee4abf5333U,
  0xe6c84e9f044d263fU, 0xf8d2d1c748b94b1aU, 0x44d939e68f782e1eU, 0x9116cfb44b98d0d7U,
  0xfa26315120a57d54U, 0xfb2f289350d76ab2U, 0x323d2ae612535dd6U, 0xfb5b59c1b6f330fdU,
  0x73b42f5264bcf6afU, 0xf01811f4013b98b3U, 0xd30f4bdbdaf8e0b9U, 0xe0fddbf164ac0934U,
  0x219db7474eac0ecfU, 0xebb656dc48b5d533U, 0x59a3944015cf67f0U, 0xb7f6d93ba7e4dbd6U,
  0x4d0f3ee0d1f17f32U, 0x550d2eb0a1fa1db9U, 0x3aaca34c11d6ecf3U, 0xc23966b827d62849U,
  0x3ee2f7a83a34b4e6U, 0xf5542ed293cc7f7U, 0xdb41b7fb068f3506U, 0xed3d19b32c9fff22U,
  0x55f265da2919f403U, 0xaa0f2b2bc35cf5c2U, 0x5ce2a6f616072053U, 0xeee7bee4f40107f1U,
  0x4b3cb8451568d59dU, 0x105cfb5aa7dfe1f9U, 0xdfc302ffb708f12eU, 0x72fbdd9c65d1b5b8U,
  0x2ccb13c648a3a515U, 0x950d11eef2ec2bcdU, 0x4e532a06ccb75f17U, 0x343ed795bda9fedaU,
  0x3c0f52aebecdb80aU, 0x1c03ae50015db961U, 0xb62cf18fb5331e94U, 0x5bc9e4b6a4a33a9fU,
  0x5768bbd00fe0e646U, 0xa7ecefae3da74cfeU, 0x5b36e25f05fa3b6dU, 0xfb3ed345abe55826U,
  0x2129a1f8cadaebc9U, 0x3142d8b05259d24dU, 0xe6f597dcb79b53f6U, 0xc5c62edbc3ca3d8dU,
  0x65bd5eb8536dcde5U, 0x6a43e047bf34aaceU, 0xc2edc1174f1f08a3U, 0x2f9bddf22cb19befU,
  0xd9943cd459eaf521U, 0x3ad3019f059d5a1aU, 0xdb3e3254eb514aa4U, 0x209c9453cb05eedeU,
  0x5cdd63f5ff19c7c7U, 0xf60921f1624a3306U, 0x58f4ce11b8954ad2U, 0x2de4c6bdbbaa9446U,
  0xf414109f8b4b64a4U, 0xf3067426db4ba9b4U, 0x3f412c252f13e11dU, 0xe565bb1924ed9208U,
  0x636a5fd8db0ee1ecU, 0x60d6d609d51bad25U, 0xcc3b6d4832aab664U, 0x22d1c95e0ac8d0e5U,
  0x10cddf5948556afbU, 0x42a6d5604330c617U, 0x6adbb50d234d7fbfU, 0xff4598b247422de1U,
  0xd6186a4729641abaU, 0xf1531bb8e5ecc045U, 0x9ca11bc9bb7000c4U, 0x3626c6d597d1f3c8U,
  0xa54b94f7de3565f5U, 0xb6f8ecebca97b3b1U, 0x28e2ecbe2c9e46e3U, 0x1e2a22d5da681649U,
  0x95b1f2faf8aabfcbU, 0xe120e8a9ee3fe508U, 0x9e5a095571ff6a27U, 0x89be1d05f84efddfU,
  0x60261b8d32947672U, 0xf2dacd96c9dee31eU, 0x19573ab600561a51U, 0x5c4a0f315ce5ea12U,
  0x8cb1c3bf14f0745eU, 0x20909612be033f20U, 0x30ff9b2802b82337U, 0x675ae260e63c5d9bU,
  0x37b8442aef8b3255U, 0x105c1c04a38afc5bU, 0xbb00211948009f18U, 0xa345bb45a79fef0fU,
  0xa92413ca46784923U, 0xfc44b4d6bd62aa1cU, 0xea4f402d356b4c76U, 0xed18e40ffb3969eU,
  0x20caea3a410e40e4U, 0xb04a89a86b725d3fU, 0xc25ce38518b56edeU, 0xca45984c6ae3f90bU,
  0xfdfbfb40428fe747U, 0xdf1b65743eaba0eeU, 0xdfa2766323a747d2U, 0x96dc946429a93828U,
  0x676044418944e39eU, 0xfda0aacdc64a2931U, 0xa96a13d872312e1fU, 0xb45006b1acfed444U,
  0x73546cd7b5a29a0dU, 0x38087158cdf8f9bbU, 0xabcfa7522803af91U, 0x721f4004e037beb0U,
  0xdc1b69ab242bd2efU, 0xb6d22436971a797U, 0x48a646f9aeacef06U, 0x73d7662b6d2e3aa3U,
  0xf7b6549aac3d154aU, 0x9d95d8d76798577bU, 0x350d1a5cdf38e8b0U, 0xc932b431e9028592U,
  0x6dae88edc8d7c700U, 0x4d4849729f582c96U, 0xd25c9b02ee3b0ab0U, 0xaf3e67d5c8c9e6a7U,
  0x25d05f1762a7c634U, 0x475ca989f54c1baeU, 0xd06577209ea5ef12U, 0x9b1706dd51124eacU,
  0xd7488bd7eb22af3aU, 0x93236e3b12d38a90U, 0xe3e0dde4d99df3fcU, 0x5db88199bce1439aU,
  0x93db060e968a06c3U, 0x1cce5e5c8e013890U, 0x18eefc981c85e61eU, 0xcdc5f0968b4856cdU,
  0xaae5a0371a1c33e1U, 0x30e2a6ddca565861U, 0xf13e1373967d5cd5U, 0x819034ca4c5d338U,
  0xd8372084b7b17c95U, 0x7de476b895e5504dU, 0x2ecad6ce2353908aU, 0x913cbfdd170f9281U,
  0xf04c97b7ad2e9ba7U, 0x9242fb87a4b8a07cU, 0x9da783bbb8d8e74cU, 0xbf890e17ddfc92f2U,
  0xa9b11011e834a896U, 0x4ebda663fa17ff17U, 0x4c136b1530f6398bU, 0x6077389ed4ad5352U,
  0x12ff6a4dd4bd1626U, 0xc2b852b83c3b4109U, 0xe4b0358f1da6a92cU, 0x3f15e216a46c3627U,
  0x950e050a54c6d371U, 0xbe43377317bb6979U, 0xfd30336310c4935cU, 0xd1e6043ef785b525U,
  0x12c5a9fc48b5381eU, 0x78f8a4926d21b2adU, 0xb64f0eed0545a1a4U, 0x44d281badc66b88eU,
  0x71886a9ae091241aU, 0xb7f7f3f742650043U, 0x3a9eb94986c88d49U, 0x4b1b82254f58c6beU,
  0x1b723750cca6d003U, 0xba8bc8b0e6ffb8b5U, 0x8d056a76d9db03bU, 0x888dc8345dafde5aU,
  0x5750452b898d2adU, 0xa03a2210df0ea412U, 0x3c7e3411e54824faU, 0x827dbb14e93f5492U,
  0xc0a002d7d70366cbU, 0x33fb70ee7349054bU, 0xd8d6fd8729526360U, 0x65212d102ff2790bU,
  0xd3b6ff20b05a97b9U, 0x2d88fe60ab9f1f23U, 0x73fcd665a1642756U, 0xada8889f8f3cb44fU,
  0xa6892a06b9a8e111U, 0xb990ca0985d6e42eU, 0x57e68aeec8f7459cU, 0xc6cfd0a45b59a415U,
  0x217a9472b94c6cf2U, 0x61badb1108663f1dU, 0xa8d29f1b4ffe10acU, 0xa82701bae204d59bU,
  0xeddf0a643bf335d2U, 0xba01e48ba8aa3ba7U, 0x799b2af5234cdedaU, 0xabceb3999cc17b18U,
  0x745104cb64eee639U, 0x3ab4a148b8170797U, 0xe4b1cb15305935fcU, 0x1745374db956e558U,
  0xf8c6b4a9e86224cbU, 0x1ac9aaded1a60a16U, 0x5d1cb6ff610bc055U, 0x63e2babf4e3ffa27U,
  0xabbb5effaae507daU, 0xe15761b5b6ce0139U, 0xced6b72dad00dd09U, 0xd722d7400515be24U,
  0xd6d1bc6aa89f5eadU, 0xdfd71c511a3cb2abU, 0x21da55d0bb21ce3U, 0xa9c1cdd7ca2460abU,
  0x4ce054435530d400U, 0x3b34ef15c8132410U, 0x21ff1c7c8c1379fU, 0xa11111f95f9fddc1U,
  0xb62416dec026e81eU, 0xc08b8d6294ec80aU, 0xe8d0e4d45d57f018U, 0x4220d0fd1723af29U,
  0x2b0be6262b1d4313U, 0xb7d94732d020f1aaU, 0x34193c0a00432af0U, 0xb7e4cf614bd4df05U,
  0x3650fe03aed537a0U, 0xd2eb2c39b7a46330U, 0x4c10cb2d43e95e16U, 0x4c073fe5ecc82e1cU,
  0x9e38fd120b1706c1U, 0xb0a7b5a7b4f9df38U, 0x14539bb2252bfe4eU, 0xf6c5b2b3ed2f0703U,
  0x38131bdd28d45996U, 0x9c56381847ca38e5U, 0x4b0b11d3db59231eU, 0xddbea21fcca6a5c8U,
  0x41d2132bb3d8f73cU, 0xbb4659b10fc24e0fU, 0xf703c854bb5bb61eU, 0xf3d2f6b35af904dbU,
  0x5c38f0fb0dbe43c4U, 0x5c19a4fcc527d27fU, 0x1ff73a19c6623c52U, 0xbde0ae9d4038a2U,
  0x1fb49e4dfb04e73bU, 0x1c5b5717aee939f1U, 0x47a1a222cbda00e5U, 0x2c524bef675eae3bU,
  0xfb2d46f1319f245aU, 0x9f05394f15bad4c6U, 0xcfe11ce9ceedfcU, 0xe6ef15ee4edfc70aU,
  0x9fced5eaa11d1213U, 0xf5cad4d02527fa5fU, 0x2b083babac63d703U, 0x20aa0ecf5937bd47U,
  0xca1fe7c9fdb807f0U, 0xfe5a22565508272aU, 0x9ea45104e3ea75d0U, 0xfeb0314599120e57U,
  0xe853c0e255c848d6U, 0xb6d936cac2fc656U, 0x4ab52f2c3503c3f0U, 0x2437d86929f158adU,
  0x66359f8d37d3be35U, 0x4727a9aac6bc9f60U, 0x29edbc99ebdc4e3U, 0xbb07de570d0a6abaU,
  0xdac150432f4cc50eU, 0xbf20b3a1af5916a2U, 0xb42ef839393ed226U, 0x9b482a39460d546aU,
  0xb2606522ef46f7a0U, 0x90dfee5747cd4eafU, 0x623a6726fdfca868U, 0x20ac15c055009e36U,
  0x4659fbb25343d136U, 0xb79445dc69c3ee53U, 0x43d191555845024fU, 0xe0f107dec5a0d5e0U,
  0x333cdd59f0c56131U, 0x6e66b768c247b2e4U, 0x63d1f8d6612e4099U, 0x6a4f4ca50ed516c6U,
  0x2a91a40e07223d69U, 0x2a4ab4f6981ecc52U, 0xe75cf5d9440bea1dU, 0xbbd14695a9256cc1U,
  0x22c54fd399e4a89U, 0x105e0ccb054ddc66U, 0x1b4d13c90c00cefaU, 0xf73b88cdd3d4bbbaU,
  0xab09f26c915ca424U, 0x21eb86de39383af1U, 0x410ece45243c3981U, 0x4497ac41fe90b87U,
  0x50b8a76821b100e3U, 0x1697be14dfd9580bU, 0xa93b154d6af048b0U, 0xa322002d9d30f85dU,
  0xdf26fc1a2c3ad303U, 0x4b65ff613bca0213U, 0x1ca15597fc63fbe0U, 0x5c2ebe6499003846U,
  0x444bb3264fe956dbU, 0x6a7199eb499df3caU, 0xf617dcc36c2446cbU, 0xfb1f592936f20ecdU,
  0xb54a4450e90835c2U, 0xd95365a717bd3ef6U, 0xcdfeb4602999bbcU, 0x6726c558af14eb28U,
  0x170823c29b649a2aU, 0x4fa129a43af0a8b0U, 0x379e4e8e9c605314U, 0xf30356e8e3b794daU,
  0x6efcd4c523ba365U, 0x1021ec370420f4a9U, 0xfabb8aad9fff5e30U, 0x8fe431d4292f3543U,
  0xd48b031a55f4c63U, 0xb89a911de9a3cf31U, 0xef1b732736b04194U, 0xd6b6143ec9f122dU,
  0xeb32ad3923a70050U, 0x9afe5b7311ffb032U, 0x2fbbfb0d4d1159dcU, 0x621a012e220dbe54U,
  0xdc3b683425164b51U, 0x16f4bf8b36ad2d8U, 0x8816b057a858a4b1U, 0x23c6cbd05ba29790U,
  0xa8ad2508ee148a28U, 0x110da4cbcfcb316dU, 0x9beb07ec481369e3U, 0x2e110e4500d3ec94U,
  0xcccfb3199be31ba1U, 0x1c98f5143c0e1de4U, 0x286186bf40d795d9U, 0xbec7c9e2e88da6fbU,
  0x543842ab17f8b659U, 0x242ef9c5e2a4ce97U, 0xbf79e62d1d72a77U, 0xedf7cdde69190389U,
  0x78b86f9e35f89ec9U, 0x471d60291eeccb2aU, 0x9f312a058ee4484dU, 0x2a5dfc9bdf3cdcfcU,
  0x81d0b6f5f0262055U, 0xa3d94b1c2309485aU, 0x7528671460afaaa2U, 0x9920c51815ca35f4U,
  0x6530bc60f536bec4U, 0xa4402e45628d05d3U, 0x34b1d814bf2bf1f1U, 0x8fcf85c726155705U,
  0x3640248e17f1feb0U, 0xddb6166f90e846d2U, 0xd1e819acfaa89d2fU, 0xfade212ff35d216U,
  0x102ccb225250fb33U, 0xdca5af8e0e2b5022U, 0xf7dc2a63d59c2f32U, 0xd0a80fbb2c8addebU,
  0xec8adfcac3615a75U, 0xb725ba94689b1aeeU, 0x2f61f2f49dc535e5U, 0x444731e1dafe7acbU,
  0x438ed92082fae9eU, 0xba9e620fa918e8bcU, 0x4af0c6aa2fb46ecU, 0xe5c7b8dc2b158b0eU,
  0x6cce4e19263b594dU, 0x3923c84809f0aa09U, 0x4263d7d497287833U, 0x99f51eeb64fc73f2U,
  0xf09aa7109e4c1da2U, 0x5167d0ac211339deU, 0x413638f0ce86d834U, 0x1f98400b259e25b5U,
  0xc06e854c0c2a354U, 0xd0d788b149189cf4U, 0xcc9314d36a05f69bU, 0x94a43dc5c8aef9a8U,
  0xfbe37757e7866950U, 0x5cf139316e4fa1d6U, 0xca6e0bede1c42c01U, 0xec67a80150c71cc2U,
  0x91da3764e99f5a27U, 0xb6f6ae2e27a5453aU, 0xeb6f9159ce8b03dcU, 0xc6b9833885ba252cU,
  0x503a3f744008c425U, 0x9a203c959da0d1b8U, 0xdf9026ea067adcc6U, 0xfc8ee8c2f93024adU,
  0x2f37c136bd2cf704U, 0x6f0f759f99cdd4e0U, 0xc4a75e9c08ea662aU, 0x4aa03195ce145865U,
  0x4bca0c412bab11fU, 0x1a756975315acfc2U, 0x6cdc5d3d4c70b98dU, 0xe2ca0e2cfb8940f3U,
  0x2d1be6dc95eaf888U, 0x6b793b3a38ad355U, 0x7348a2616fae1597U, 0x3da9ca37e72a2495U,
  0xcf9c8117196fe02cU, 0x44a42c3e2cd9a9f2U, 0x94939a555ee0c614U, 0x5c9249318ca34f73U,
  0x95975387226125a1U, 0xad4279ecce925ce5U, 0x5bd747435ab60b03U, 0xabff19ac0bf12aa1U,
  0x8555894ac044a2b5U, 0xe3ac46d28cf80364U, 0xb94e0122e9bee1b8U, 0xb1b9000ee476ff2cU,
  0x794232cf0bb2b2edU, 0x253f78228d17be74U, 0xd176fa68caa06c07U, 0x631397ec2ee400a2U,
  0x552752906a4e8d0bU, 0xe672ccce8e8657f6U, 0xe8654ac9d2b2eb1dU, 0x1a079a0ae6642c39U,
  0x4915c66a0e20645eU, 0x31a39f60e4d3e8fbU, 0x1821d9fd825cf674U, 0xaaf568924b024e73U,
  0x2d06d863c55ec266U, 0xe571451ce7c9d8c4U, 0x229fac83a41a8b3U, 0x8f2caa426d52e46dU,
  0xb41437bf65f002c8U, 0xa423ca62e1fc0affU, 0xd030ef30fd14dcbU, 0xfb2dcae1f6e100dbU,
  0x4e750221754acf8U, 0x252839ef37f57df9U, 0xcc23c1d40b1df600U, 0xeac6f34027d3ab24U,
  0xe108c83dfa2db93cU, 0x2c4a15b2fb1d55f4U, 0xf803420d00233226U, 0xafc1e7afe5b3c94bU,
  0x15def63fe3f3c9b6U, 0x1ecaeb52ca3dcdc3U, 0xc11cdbec57002732U, 0x31dfce1031497f30U,
  0x4afb1180a001a15U, 0xc009f5122ee7eb19U, 0xae000ce2e8ea57ccU, 0xf314e9e83645e214U,
  0x3c1cbd045659ad34U, 0x1b40e3f50dea1802U, 0x22f142040efaecdfU, 0x35233c2e45c1f71dU,
  0xceb933d8222fd6f3U, 0xdbcfe6f4b80610c8U, 0x1cffb3bace086209U, 0xbe24ed3dd0eb6632U,
  0xccb8dabd0cc122ddU, 0xf7fb0e3bdfea544cU, 0xd0f72f05ecf4c4f5U, 0xbc1f2d26424a450bU,
  0x46bfde134723b616U, 0xfa09f7faf4ed5422U, 0x81532b9f2d6a802U, 0xc5e521e9d6400f30U,
  0x5a1a2c361bf5cbe2U, 0xd8f4210b19e02210U, 0xb2c3df15272f24ebU, 0x29abc0c4f2ef1422U,
  0xedaee305db10befaU, 0xc40216490329faf1U, 0xcffe090c0b18ef2eU, 0x3c04da1ae6ff00e7U,
  0x4aedb9bdf451eefbU, 0x402729acbcaff1feU, 0xdd0f42f10dc310f1U, 0x30f03dcb0126b3e4U,
  0x1c08d1a322ed28eaU, 0x110cd81e22b7b444U, 0xd550acc7ff15ac29U, 0x5af3fee8c925043bU,
  0x14e3f7216205fbcfU, 0x2b36bb31a0e0f9d5U, 0x41292140bd5028bfU, 0x4eec0d37ea0d570cU,
  0xf4e4410e58dab324U, 0xebb1c62f38d6febaU, 0x1628f2ee2ad2d7cfU, 0xc839c6cd38f8ec33U,
  0x636eb13babdcfb6U, 0x45273ab0f8c999f9U, 0xc815b3002ba0c4c1U, 0x553025fb831b40adU,
  0x45985d4ddcb254ecU, 0xc63eaf5fdfe00e5dU, 0xb6e024bf4b238b54U, 0xa401d92dc2000921U,
  0xfdc36cccc133dc67U, 0xab2523cf033689a7U, 0x7760b004a60261dU, 0x630fb4330520d7b2U,
  0x6ec43d4998972e8dU, 0x770f052c49b3e6b4U, 0x63fd90635f4c3beU, 0xaeb12e16b7602b61U,
  0x969c10bed2fb4612U, 0x62f3c4400b10aa66U, 0x54bc20754c73d11cU, 0xbbbd23909929bfbU,
  0x9723f4df6ce10cf2U, 0x383e3ee8a322cd75U, 0x51bbcb5cad328ab3U, 0x15f912a0e2c39310U,
  0x1055515c17e3a1d5U, 0xb6cff017a6afd6baU, 0x324bb1c80badf6d2U, 0x8e42a98b49b70f8aU,
  0x38f75565f3d1da27U, 0xe0348d35b3b1b5abU, 0x5d7bb02da044888bU, 0xf3b879252261c1cdU,
  0x4c37a15bb968629aU, 0x5db0a794271fd5e9U, 0x2ea7898d3d453feU, 0x17ede5501016593dU,
  0x710d332b42c8382bU, 0x78209959623c54b3U, 0x43ea6cf9503a67a5U, 0x425de1ffbba5bf06U,
  0x31d72702e9c602d7U, 0xa32ee4ba5f4dd0eeU, 0x5cf41cc183e2452eU, 0xa3fa575658b10ff1U,
  0xb7dca1ba47112699U, 0x63aa8f1824f26611U, 0x5f37664f40a89273U, 0x40465028936fa926U,
  0x489cf432666e3848U, 0x435e05239e01f5a8U, 0xa4c440918139da70U, 0x4a8e214186060236U,
  0x673c66c75d7154ccU, 0x9fa058c012e38d6dU, 0xa50ab07038485f6eU, 0xea69b201d96e07c7U,
  0xf3ff894c79ff4009U, 0x6f6612d256e274e6U, 0xf244e04f6af49d9bU, 0x8d229fb0d1ef0b6cU,
  0x2c5e5c24a1c486e5U, 0xec9d242457c92b99U, 0xd7d0ed35cee61133U, 0x273e3a03dcc6ece0U,
  0x34cbc30402fdff11U, 0x2a1c0bfa47c1f7ceU, 0x8fe70512f253cbe7U, 0x18d9d51ae618e1f1U,
  0x20a50bed02f70657U, 0x20d021f92fb22029U, 0xe609c5c319d70daeU, 0x462716d627e455a0U,
  0xaceff407df24c82bU, 0x2e38f443c9d94aU, 0x1fded0daffd1fae3U, 0xf83ef13fffb8bfe7U,
  0xd4cce8c0003e04f4U, 0xec36d11228f32817U, 0xa734f028eaf1cc23U, 0x3dd3e0ad0aeaf512U,
  0x22d4a3c8e0cae235U, 0xe2174fdb123901c7U, 0xe8f2c23d2740fedeU, 0x53d111bfcd385febU,
  0x2b3d0d16100a0d69U, 0xf8f1bf3cf8f1c204U, 0x250a050dd6201528U, 0xdc28ca39e6bc26caU,
  0x1507f700d119ff1eU, 0xc4e0f1fa3825fadeU, 0x2c323de0d6e52c01U, 0xca2dd2cb08befce3U,
  0x3817b5c21e3a332aU, 0xca2e14381e312c1eU, 0xd1bb5fff725d0e0U, 0xed07e70152497f3bU,
  0xceed30256c9eecdU, 0xc5e2180bb716befeU, 0xe32febb9d627c724U, 0xef1ff9f337d4fa13U,
  0xd1e0f21fd1dd0bcdU, 0xca271ebcfd1beac4U, 0x3bcacaf10b1aeaf7U, 0x22d5153bf3d2ede4U,
  0xd0f6adcb172c36e6U, 0xa34e7f2020bc8f6U, 0x26cbb86846d2edd4U, 0xef2cef1e1ff73ddaU,
  0xe84c1accf6f2d817U, 0x3e41dda0fb4728e8U, 0x117f1131a1fd919U, 0xf40b2df4f602c141U,
  0xae01d3e33f0d113U, 0x36db2afd0e291ff7U, 0x23d319382ad4ec20U, 0xcd8d24304e3d836U,
  0xeef5e6281b15fe29U, 0x15e822c824dbb7d4U, 0xed1c1c56c9ce2241U, 0xbd2e2dd1a37430aU,
  0x27d00300f4f01608U, 0xbec4a904b43c17f4U, 0xc6daf5fa0c40da6dU, 0x6a4d2ecca922170aU,
  0xda926c00204553aU, 0xe82f46c8c1892922U, 0x40443a140f67ee5U, 0x6ba5d5489dffedefU,
  0x5ec5cd5a465140feU, 0x2aabad40d6e902f7U, 0xa76649d459ebbfafU, 0x475466abf2dd08a3U,
  0xb8aaddd226ff65d6U, 0xc6ab60c0ace9a5efU, 0x34160c26a8df66d3U, 0x7053b9c5655dd31aU,
  0xc3c35532ea379cfeU, 0xf1b2b7ecae433cedU, 0x5155045f4dd2db5bU, 0x6b3db3b0b6914663U,
  0x4e62d84027b80d54U, 0x4f2216a693bb59ebU, 0xf9241b8ea9d8b007U, 0xe1f0211791bd212eU,
  0xee35edcb3fd0f90eU, 0x2393f4b5123b6152U, 0x90e6d3ba95ea3110U, 0x3aecf353f11027e8U,
  0x6bcdfca4e15aaed1U, 0xa66d6770ab061ed1U, 0xa4a8863e0cdcfbe0U, 0xcfdf62dc3af62b0eU,
  0xdf2f28cb6bce1e60U, 0x2da090ca530c35c8U, 0xdbfc446550bac70bU, 0x4704122f2bb35e65U,
  0x52f4ce2632d9f01U, 0x650f1946635aea8U, 0xe3ee295ed814fac5U, 0x9700a0eb2252c5c5U,
  0xa540f3f0f325ac94U, 0x2cfbc8623ead0724U, 0x766d92c59f6ab337U, 0x9af5324db4ad7147U,
  0xf1709ef242d221eU, 0x591afd3d023830b3U, 0x532b112cd7123eafU, 0xdb649121e78f1918U,
  0xd2d4aedc8de44922U, 0x568fd2accbebe8cdU, 0x597226c29f4e6fa4U, 0x60b1f328110057a6U,
  0xee39f836e19cd14bU, 0x2eaf9898c61d61e4U, 0x3bd9e8d1fabe4d26U, 0x1eccbf6ee781054fU,
  0x8b2d46e190594e25U, 0x722dadfc261a638fU, 0x9de7c4b9f619f600U, 0x37d925d629f1f50fU,
  0x42e8c293eafc4356U, 0x39c53d117759f159U, 0xa52eb7d3feb1f834U, 0xb9ab3cbc90964babU,
  0x87d29e8eadabb9e2U, 0x2ea9e98cdc6fe740U, 0xdd2285acb322417U, 0xd5cbc624d35a6bd2U,
  0x2839c4c6f00dcd56U, 0x6686542a0263176U, 0x1ca1c4e0d4709d15U, 0x40a96940f119293eU,
  0xa94118930440ab20U, 0x28584dbbd05ee9baU, 0x23f119d652e1902fU, 0x462f04698cf3463cU,
  0xaa179ceb94a3c6dbU, 0x20baf75974f9e58bU, 0xf093073e1c0e09bbU, 0xc9e844d80f559b4fU,
  0xf29db62dabd1780cU, 0x4dfb9e477925ad93U, 0x135747b7aa4d93a3U, 0xfabcd91c293e43dcU,
  0xc5c10062f559a98fU, 0xa77637a5bb4efa0eU, 0x5618de9eaf4ca795U, 0xe2104e434c242e6bU,
  0x5d784aa46e03abaeU, 0xb0b6ad75e470e2e5U, 0x489f065b60675521U, 0xf1e0965907e040e2U,
  0x186cc032695be627U, 0xc8fa86fa91d6bb34U, 0x4b23f6a9eb53a0f6U, 0xe0116a3df2aafdbU,
  0x98f89d42940f3b89U, 0x8d1decc9a3c6f431U, 0x5562da93cb03acb8U, 0x131625e752cc215cU,
  0x745fac739f11670aU, 0x214a2e68c7dc11d6U, 0x6309b8d9090bde0U, 0x10bbae4fea433aa8U,
  0x9409629d2115d552U, 0xc07581922f61089dU, 0x66096b1f05e4d4f2U, 0x302c96222f366439U,
  0x86313d27248992acU, 0x5a0ecc4474d0d802U, 0x6667ef8f6b62549dU, 0x71f0036a224ea94eU,
  0x60c0cff1e5df23c4U, 0x7e49062aba08dadfU, 0x40a5b1a3ee0f5468U, 0x216bc50a5250c8fbU,
  0x4ef5ec2f8672eU, 0xad5eebaeb2749517U, 0xedce5bcc2fdde7daU, 0x5b148872102ee536U,
  0x1a60f7580f39caf5U, 0x2e2eed3da140565aU, 0xefeced8fd1c670daU, 0x4a3bc139d630c605U,
  0xec35b65bfedae452U, 0xc5c73be01eef3c2bU, 0x2849b23302f4d34dU, 0x1d545d08bdc306cbU,
  0xdb29cf62e909e110U, 0xd947cb08114ee83fU, 0xdd35a43eb3bcd7bfU, 0x11af27bb180b064dU,
  0x39c6ce67bc4f0851U, 0xaa0731344767f726U, 0x36ac5f2406b32c37U, 0xb83421deee69fd35U,
  0x65046023a80ea7fdU, 0xa89439a40d9fcadeU, 0xbdd9424a67adb717U, 0x4641b028e4fe9bddU,
  0x1a932dfbae343617U, 0x462ae68d51c0383eU, 0xcb344ce62c9230f2U, 0xdaa38fd2b5659155U,
  0xe16a443f58141f1fU, 0xc0de30a3f8e4f0beU, 0x6eb24949f625437fU, 0x493a9feb493a2ae3U,
  0x9a60d20a34204ad3U, 0x49b7c7fcd20f50adU, 0xd1dfaee82c3c5be9U, 0xbaddd7c7d45ed420U,
  0xd444c60ed4a2b64cU, 0x41bf5c3c021f45b9U, 0x9c11d468d201f6e1U, 0xe9bf97ef9d0a1922U,
  0x2cfe930bc2f85438U, 0xe32bf812b842fb59U, 0xb8d03994fbc1a928U, 0x576ffa035cd1d44cU,
  0x93cc1c3beada1f26U, 0xff47a4a4a0f005e1U, 0xc6f25925b95ecbd1U, 0x720be11dd2d2d669U,
  0x1fc95c159de95d24U, 0x2b36f7f928440a12U, 0xdd2ffaacfe53bbafU, 0x11c8a2b9ca5d34e0U,
  0x32a7312d3eccfbc2U, 0xa6b94cd732d9f1f2U, 0xc3241d9db70c5747U, 0xece995fa042c4c2bU,
  0xc8c85fb2a93c7070U, 0xd8e2f3abfd27ec5bU, 0x25e09f6e62101a8U, 0x21496dca3647b7bcU,
  0xe2b131d6e11359ecU, 0x97c70ae95726cfa0U, 0x399f705b0c47e3cfU, 0x281a4f6609fad11aU,
  0xacdaadecc0b92207U, 0xc14914325dfadf9dU, 0xa54449649f9ef716U, 0xdf41f1f5f23246e6U,
  0x4d926b997a6e6e22U, 0x972fcefd51d82f71U, 0xb08bfeeadf7adce4U, 0xbb9504a9bb62131aU,
  0xba5005d18e364aa8U, 0xe503ab0d9b38d714U, 0xffc439f810194d74U, 0xd6b8d3d9e597d4f8U,
  0x8a3cc5e32f434c0fU, 0x61cc9c012ddecd7U, 0x6feea48fa2e63e7cU, 0xbf00d566aa2ca23fU,
  0x1a99dce902aeb210U, 0xd448de16d7241164U, 0xc92a2655c39bea0cU, 0x89e8b8b43f0db0d6U,
  0xe5bffac85baf8125U, 0x260201dc4fcd6cbfU, 0xefde021da0d67310U, 0x70f06893c918cbecU,
  0xef4aaebc33f6cd2eU, 0x6337eae497122563U, 0xae035b04b2f74471U, 0xb646b5e1e8ed5340U,
  0xef3ade98eed1a8b3U, 0x2dbf0d4adef95bfdU, 0x695bfdf2581cde53U, 0xa0d60d21b87b20dbU,
  0xffc54bc83c5e372aU, 0xf5500a382b18efa0U, 0x82e144a092635688U, 0xd24dc2c4db07fc32U,
  0xa0ec32a65b70a3c3U, 0xe2a92bf295146945U, 0xf3185168d904e2U, 0xea3feacafa227361U,
  0x9a12b519ef59c5a6U, 0xb4fb2b6a4bac3509U, 0xbab756d7059637aeU, 0xb8b8e654ec4af12fU,
  0xdb67f7d3eaa0d6a2U, 0xcc89555133e7d216U, 0xdb49291567fc68b4U, 0xae0cc9187149dd83U,
  0xa54c6e2485da19deU, 0x221272323b3cc831U, 0xdf384d22a469eb90U, 0x9b6975b6eed6c717U,
  0xb6414ec46f3340bfU, 0xf14f361340e35f14U, 0x4c9f062c61f7c4f4U, 0x70ebc81b201640f3U,
  0xcc275aa4bbf5a459U, 0xc0bb42f3d84c220cU, 0x4fd79db58f3053ebU, 0xf4f462989237bdd9U,
  0xb8eaa4c611f815feU, 0x2b4418834f6e43dU, 0x5aff132949ed29aeU, 0xed220edb0bf01f02U,
  0x22542d0100060d3cU, 0x4530c4c5a5e80ae9U, 0xf46031f72a142e04U, 0x3bfb8a5b5be44132U,
  0x34774abd2e8fc7bcU, 0xd0b32ad4d5d1d3f7U, 0xc4301f1f55d2072eU, 0xe047ccdf0f0ffb08U,
  0xd148c3f12fd84ff4U, 0xe3ef4aed38fd5552U, 0xe0ba5502e703e406U, 0xe7be163843bc1023U,
  0xb8b0e42a404f5de5U, 0x11f0c2c7e0ffef58U, 0x76dd0c34dd2ec24eU, 0xfd3811d80fc0fb38U,
  0x5cedec5efabeb06U, 0x22f18a4cce2c250U, 0xd12f2e3fc4c3c6caU, 0x3bd6c6069fe8ffcdU,
  0x42bf3bdb28c7122eU, 0x120ef3f5cc26dc08U, 0xa9e402aad52f645U, 0xd8f52b05d2c1ffa6U,
  0xedb3034f211c0d34U, 0xda384f56f0e4eb25U, 0x2242e228c3e30813U, 0xfa0516232cdf30d8U,
  0xfca10432cb1c8dbU, 0x4018fcfbeed9cf1eU, 0xe44f0a990824e54cU, 0x2a4a02b73fe01cf0U,
  0xd6fce0503a4850c5U, 0xd2a241f3247bc35U, 0xca2bee9ba63c90e8U, 0x352dec22c05b47d5U,
  0x47dbc8f712b4d5cdU, 0xc04f4af942903219U, 0x370fed30ad2ff50dU, 0xdf137ee02a672047U,
  0xa0bd9b3ea0f1031U, 0xd04ad90d47341a0eU, 0xb3c9b1cc3053dd28U, 0x21dfb314d1c344ccU,
  0xb13ff8d9c136120cU, 0x3faffa1dc3c2a908U, 0x18d825ec45a09ddeU, 0x35e9bc4849e0020dU,
  0x7f0ccd09f5c4af31U, 0x23dc6c3420c8d017U, 0x2404140fcf3ced15U, 0x1015eae1daf10e34U,
  0xc93907bbdf1fba3dU, 0x215445f6d0e625e3U, 0xbddac0e4cf424841U, 0x3df10403d110dfeaU,
  0x362e40b71fdb43c0U, 0xeaae55d5e9e0b14dU, 0xa2bb49c3409f36c5U, 0x2f2af15b345c725fU,
  0xc93bc474fc1b205dU, 0x9945cec4e8d7eeb5U, 0x8b8fb0575701d53eU, 0x38002cba263b9ca3U,
  0x48013336b7363a11U, 0x1940ca2004eb519U, 0xdcc59b45f8deccd8U, 0x17d84a9845645feeU,
  0xedd933bb24651158U, 0xe94a2e3ab9cfcddU, 0x4bd313c9d4b5ed5aU, 0xaf14c3222c8f69c1U,
  0x2adbafa8c5431502U, 0x48d72dabe6700313U, 0xa31610ceb429c5eeU, 0xf813d1d321cc0a9aU,
  0xb2edf548ab1d7138U, 0x3b26493cf2a458cU, 0x195724fd2be2e005U, 0xd10f6ccc4ef0e367U,
